\u0120 \u0120
\u0120 t
\u0120 a
h e
i n
r e
o n
\u0120\u0120 \u0120\u0120
\u0120t he
e r
a t
\u0120 s
e n
\u0120 o
\u0120 w
\u0120 c
i s
i t
o r
e d
e s
a n
a l
\u0120 p
\u0120 f
\u0120 b
\u0120a n
in g
\u0120o f
a r
\u0120 in
o u
\u0120 d
\u0120 m
i on
i c
\u0120t o
l e
- -
a s
\u0120an d
\u0120\u0120\u0120\u0120 \u0120\u0120\u0120\u0120
r o
\u0120 h
\u0120t h
en t
c t
e t
e l
\u0120 re
\u0120 n
s t
o m
\u0120 l
\u0120 e
i l
i d
o t
i m
i g
\u0120 g
v e
u t
\u0120 T
\u0120 I
\u0120 is
o l
a m
\u0120 (
l y
-- --
u s
a c
at ion
o w
\u0120b e
u r
\u0120 S
\u0120f or
a d
\u00e2 \u0122
\u0120th at
\u0120 on
u n
\u0120 A
\u0120 C
\u0120s t
v er
a y
it h
u l
c e
\u0120 1
i f
s e
\u0120 y
\u0120\u0120 \u0120
\u0120w ith
i r
\u0120 he
\u0120c on
\u0120 \"
\u0120a s
c h
\u0120\u0120\u0120\u0120\u0120\u0120\u0120\u0120 \u0120\u0120\u0120\u0120\u0120\u0120\u0120\u0120
t er
o d
\u0120 it
\u0120 M
\u0120p ro
\u0120a l
a g
a b
e m
\u0120w e
u m
0 0
\u0120 v
r i
\u0120w h
p e
at e
\u0120 P
\u0120y ou
\u0120w as
\u0120 $
q u
\u0120d e
re s
\u0120 2
o s
r a
p p
\u0120 B
he r
\u0120T he
= =
is t
es t
h t
\u0120e x
an t
\u0120a t
\u0120 H
\u0120c om
\u0120o r
\u0120 r
l d
\u0120 \\
t h
an d
\u0120s e
---- ----
er s
\u0120 D
i v
\u0120 F
\u0120s u
\u0120a re
a in
es s
o c
\u0120b y
il l
ro m
o re
\u0120 W
o p
k e
it y
ou n
\u0120 R
\u0120n ot
\u0120 L
\u0120h a
m ent
ct ion
i ve
en d
* *
\u0120n e
\u0120 =
\u0120 N
\u0120 -
ig ht
or t
p t
\u0120f rom
re d
' s
ar t
\u0120th is
el l
u d
\u0120s h
\u0120 un
\u0120 us
t e
\u0120 G
\u0120 E
re n
p l
i es
\u0120c h
. \"
ou ld
i al
\u0120ha ve
f e
ou r
al l
at ed
\u00e2\u0122 \u013b
\u0120 le
u re
in e
u st
o g
g e
{ \\
\u0120 k
i e
\u0120\u0120\u0120\u0120 \u0120\u0120\u0120
p er
ic h
\u0120 0
ac k
ar d
\u0120 O
ic al
\u0120 *
\u0120c an
\u010a \u0120\u0120\u0120
i z
\u0120m e
\u0120 j
) .
am e
ou t
u p
om e
ag e
i b
\u0120w he
u e
\u0120a b
d er
\u0120t r
o st
ab le
\u0120 3
\u0120I n
\u0120we re
c l
\u0120p l
\u0120 J
\u0120re s
\u0120c l
ul t
id e
as t
at h
an s
t her
\u0120com p
T he
as e
\u0120al l
\u0120d o
a ct
as s
\u0120 im
oun d
a k
\u0120a d
0 1
\u0120h is
a p
\u0120con t
== ==
ig n
or m
in d
ou s
ou g
\u0120 U
on e
i p
\u0120b ut
\u0120wh ich
\u010a \u010a
o k
. .
u b
it ion
\u0120in t
\u0120 \u00e2\u0122
\u0120\u0120\u0120\u0120\u0120\u0120\u0120\u0120\u0120\u0120\u0120\u0120\u0120\u0120\u0120\u0120 \u0120\u0120\u0120\u0120\u0120\u0120\u0120\u0120\u0120\u0120\u0120\u0120\u0120\u0120\u0120\u0120
on g
\u0120 [
p h
\u0120 en
ic e
\u0120w or
\u0120a r
c c
\u0120 {
ar y
im e
e p
t y
\u0120h as
\u0120d is
) ;
\u0120 +
res s
en s
\u0120o ut
d u
\u0120g o
in t
en ce
f f
= \"
ation s
n e
i a
\u0120 qu
-------- --------
\u0120h ad
\u00c2 \u0142
\u010a \u0120\u0120\u0120\u0120\u0120\u0120\u0120\u0120
\u0120 4
_ {
r u
a v
\u0120on e
) ,
o se
ac e
c on
\u010a \u0120
i le
\u0120w ill
b er
or y
\u0120p er
ent s
an ce
\u0120s o
al ly
\u0120T h
\u0120the y
\u0120 up
} }
el y
s o
oug h
i re
\u0120 if
/ /
an g
ac h
\u0120 5
a re
r y
\u0120 K
\u0120e v
e ar
it e
d e
\u0120the ir
\u0120he r
\u0120s a
\u0120m y
l l
ion s
\u0120a pp
\u0109 \u0109
ren t
\u0120m ore
' t
\u0120the re
ow n
\u0120p art
f orm
p ort
\u0120l i
x t
\u0120you r
ver y
or d
\u0120m an
\u0120p re
\u0120a g
a ke
or s
\u0120n o
\u0120o ther
\u0120be en
o ok
e ct
a il
\u010a \u0120\u0120\u0120\u0120\u0120\u0120\u0120
f t
\u0120g r
\u0120w ould
v el
\u0120s p
\u0120 <
\u01201 9
y s
\u0120 V
re e
\u0120S t
\u0120s c
k s
ur n
l ic
w e
\u0120wh o
a us
\u0120an y
\u00e2\u0122 \u013f
\u0120$ \\
\u0120ab out
\u0120al so
\u0120whe n
\u0120t ime
\u0120\u0120\u0120\u0120 \u0120
re at
l ow
er v
et h
m ath
w o
c om
at a
[ @
at es
\u0120th an
\u0120 '
\u0120 ro
I n
\u0120o ver
\u0120s ome
\u0120o b
if ic
er m
\u0120k n
r ic
\\ ]
\u0120it s
ay s
f ter
h at
\u0120b et
oun t
\u0120s he
\u0120f e
\u0120s pe
o b
c es
\u0120 &
re f
o ve
\u0120d es
ir st
p le
\u0120 Y
\u0120int o
\u0120t e
\u0120a m
\u0120as s
c re
j ect
\u0120 6
\u0120d if
ing s
} $
ri b
\u0120s y
at er
i ed
o v
\u0120g en
\u0120the m
le ct
\u0120I t
\u0120in ter
ver s
ro w
g r
fe ct
is s
1 0
cl ud
he d
\u0120A n
ol d
\u0120of f
1 9
\u0120ne w
\u0120 }
\u0120su b
in k
\u0120li ke
\u0120wh at
\u0120sa id
\u0120H e
\u0120g et
\u0120a cc
i an
c ed
\u0120p e
\u0120on ly
\u0120re c
\u0120un der
is h
\u0120com m
\u00e3 \u0123
aus e
\u0120t wo
^ {
\u0120a ct
it t
\u0120m od
\u0120con s
\u0120\u00e2\u0122 \u013e
\u0120re l
\u0120C h
\u0120o ur
c k
\u0120m ay
\u0120h im
u al
ic k
ar k
t he
i ous
m a
il d
\u0120b l
g et
\u0120wor k
on s
\u0120be c
ul ar
p s
\u0120f un
\u0120 _
ad e
er t
ig h
\u0120st ud
at ive
\u0120in d
\u0120e m
\u0120p os
r ing
1 2
\u0120f irst
\u0120y ear
pe ct
\u0120de f
\u0120re g
\u0120tr ans
\u0120c ould
el f
u g
\u0120p h
\u0120j ust
# #
\u0120 7
\u0120p r
\u0120c o
\u0120v al
==== ====
\u0120ad d
\u0120su ch
oc k
\u0120l a
ie w
\u0120in v
c ess
\u0120for m
\u0120Th is
e f
as ed
on t
\u0120whe re
o od
ot h
\u0120p res
at ing
\u0120the n
\u0120the se
o int
\u0120d et
\u0120W e
\u0120dif fe
\u0120a fter
\u0120c ol
\u01202 01
\u0120h ow
i ent
\u0120re t
st em
od e
\u0120 8
we en
p ro
on d
\u0120d id
s s
\u00c3 \u00a9
\u0120s ign
ol og
\u0120at t
he n
? \"
\u0120ex p
\u0120re m
l es
\u0120p at
< /
\u0120kn ow
\u0120pro v
\u0120s et
il ity
\u0120bet ween
_ _
\u0120p ol
\u0120ne ed
op le
] (
ty pe
ic t
1 1
\u01201 0
is e
e c
f fect
id ent
} \\
ut ion
\u0120 i
\u0120f l
t a
\u0120c ell
i x
\u0120b ack
\u0120us e
\u0120 9
o y
i o
ol low
r it
r ough
. ,
\u0120\\ [
\u0120res ult
iz e
\u0120us ed
e g
) {
e x
an ge
\u0120a c
\u0120U n
\u0120su pp
ce pt
ib le
r ight
\u0120s ur
n ing
\u0120sh ow
f ore
\u0120se e
\u0120s m
f r
f ig
\u0120in clud
i el
\u0120 \u00d0
\u0120n um
ter n
al s
00 0
b le
\u010a\u0120\u0120\u0120\u0120\u0120\u0120\u0120\u0120 \u0120\u0120\u0120
t o
, \"
2 0
w n
\u0120d ist
\u0120d ata
ment s
\u0120sh ould
\u0120c or
\u0120v ar
\u0120spe c
E R
\u0120s im
\u0120th rough
our t
c y
\u0120pe ople
it s
\u0120m ost
u es
\u0120f ollow
ru ct
\u0120f act
it ed
ction s
m er
ul l
\u0120t y
\u0120 .
l i
\u0120cl ass
in ed
in s
\u0120ag ain
\u0120us ing
\u0120w ant
e ver
\u0120w ell
ra ct
ub lic
u ch
ot her
\u0120in st
\u0120\u0120\u0120\u0120 \u0120\u0120
u res
ur ing
ic s
m s
\u0120bec ause
\u0120sy stem
\" }
\u0120r ight
\u010a \u0109\u0109
in al
\u0120 end
a x
ate g
p os
\u0120 ent
\" ,
\u010a \u0109
\u0120re qu
S t
e w
er r
iel d
\u0120pro du
em ent
o x
it ies
\u0120gen er
\u0120l ook
\u0120[ @
) $
1 5
ou p
1 3
---------------- ----------------
\u0120ev en
\u010a\u0120\u0120\u0120\u0120\u0120\u0120\u0120\u0120 \u0120\u0120\u0120\u0120\u0120\u0120\u0120
\u0120e ach
ow er
\u0120ch ar
] {
f ul
\u0120ex t
im es
\u0120S e
\u0120n ow
iz ed
s c
\u0120diffe rent
u c
\u0120h igh
\u0120con st
il y
ar s
s p
w ard
( \\
1 6
ical ly
con d
\u0120w ay
\u0120 |
he s
I N
\u010a \u0120\u0120\u0120\u0120\u0120
T h
\u0120 el
\u0120e very
1 4
\u0120l ong
\u0120a p
ation al
.. .
\u01202 00
\u0120d on
\u0120m in
\u0120e ffect
\u0120m ake
\u0120do es
\u0120 ke
le t
\u0120he re
\u0120p ar
o ol
g er
or k
p ut
\u0120d own
\u0120c all
\u00d0 \u00be
ri v
l ed
\u0120t est
\u0120s ame
\u0120d i
if e
ent ion
t ing
\u0120 very
\u0120be fore
al e
at or
\u0120b u
( )
\u0120c ase
]( #
\u0120\u0120\u0120\u0120\u0120\u0120\u0120\u0120\u0120\u0120\u0120\u0120\u0120\u0120\u0120\u0120\u0120\u0120\u0120\u0120\u0120\u0120\u0120\u0120\u0120\u0120\u0120\u0120\u0120\u0120\u0120\u0120 \u0120\u0120\u0120\u0120\u0120\u0120\u0120\u0120\u0120\u0120\u0120\u0120\u0120\u0120\u0120\u0120\u0120\u0120\u0120\u0120\u0120\u0120\u0120\u0120\u0120\u0120\u0120\u0120\u0120\u0120\u0120\u0120
\u0120de c
p r
re ad
\u0120f ind
in ce
\u0120ret urn
] ,
1 8
a ir
\u0120c ur
a red
\u0120b oth
\u0120st at
2 5
in es
\u0120in te
ro l
ant s
i ents
y m
w ay
\u0120year s
\u0120\u00e2\u0122 \u0135
r m
\u0120th ose
\u0120m at
\u0120b el
\u0120c ar
\u0120m on
\u0120an al
ar ch
\u0120part ic
oc i
\u0120f ound
re st
\u0120o p
ri pt
a ve
fr ac
\u0120a ut
_ {\\
\u0120p oint
\u00e2\u0122 \u0136
\u0120m ed
eth od
ag es
\u0120pl ay
\u0120h and
** **
u pp
an n
ut e
\" >
O N
\u0120t ra
\u0120in cre
\u0120man y
ain t
\u0120 est
A n
\u0120be ing
I t
p ar
\u0120g u
\u0120l oc
\u0120s er
\u00d0 \u00b0
\u0120p ers
c ent
vel op
te xt
\u0120 ,
\u0120th ink
\u0120fun ction
\u0120m ade
\u0120c he
\u0120 et
\u0120 :
an k
\u0120 Q
1 7
\u0120m em
- >
as es
ak ing
o f
\u0120ex per
e v
\u0120ex am
\u0120go od
\u0120C om
at ure
s et
c al
\u0120num ber
]{ }
\u0120 z
\u0120res p
] \\]
\u0120d ire
\u00e2\u0122 \u012b
as on
\u010a \u0120\u0120\u0120\u0120\u0120\u0120\u0120\u0120\u0120\u0120\u0120\u0120\u0120\u0120\u0120\u0120
o ver
y l
\u0120 \u00c2
\u0120app ro
\u0120f il
A T
\u0120t ri
ren ce
od y
\u0120F or
\u0120m uch
s h
d ay
$ \\
\u0120he l
is m
en g
t r
\u00d0 \u00b5
v al
c er
\u0120in s
\u0120o wn
a pp
\u0120st r
\u0120 @
en se
n er
} {
\u0120 ra
\u0120A l
\u0120s ol
re t
m in
\u0120wh ile
oug ht
as h
at her
\u0120 /
) )
3 0
u ally
W e
\u0120pro cess
\u0120pro te
\u0120re p
5 0
\u0120l ar
3 2
o id
\u0120re ad
a h
el s
iv ely
ain ed
\u0120An d
if ied
\u0120pres ent
g an
form ation
\u01201 2
i red
n g
2 01
\u00e2\u0122 \u0135
\u0120\\[ [@
n ess
ress ion
b e
f l
\u0120g iv
\u0120s om
v en
\u0120dis c
\u0120stud y
\u0120th ree
\u0120st art
g g
S T
\u0120le vel
\u0120 x
\u0120g reat
ic es
v ed
\u0120se cond
le ft
\u0120re f
W hat
A R
al k
an y
ateg ory
\u0120L et
l ine
\u01201 8
\u0120A s
ar ly
s elf
\u0120de velop
b r
\u0120g l
\u0120pos s
c ul
\u0120B ut
\u0120with out
\u0120P ro
al th
\u0120s erv
is ion
\u0120e qu
t on
ign ed
am p
\u0120c ourt
um ent
\u0120re port
\u0120de p
o le
\u0120t erm
\u0120b r
\u0120d uring
\u0120I f
C R
ou se
\u0120m et
m ed
\u0120f r
us s
am s
\u0120val ue
al ity
iz ation
i er
N A
\u0120a v
math b
\u0120 \u00c3
er g
\u0120n on
H e
\u0120supp ort
ff ic
\u0120an t
\u0120m ethod
\u0120s ay
id er
\u0120st ill
ter s
, \\
le ment
\u0120le t
\u0120or der
\u0120cell s
m an
t il
st r
\u0120p ublic
ist s
\u0120per form
2 4
\u0120p a
ro ss
an e
$ .
' m
ra ph
\u0120sm all
id ed
\u00e3 \u0124
: //
\u0120H ow
d ition
\u0120hel p
y n
\u0120pat ients
\u0120m ust
ial ly
$ ,
\u00d1 \u0124
o h
am b
a z
en cy
O R
l and
v iew
\u0120st ate
o ad
an c
r t
\u0120t ake
\u0120 //
\" :
v ing
' ,
\u01202 0
\u0120c ount
\u0120l ine
\u0120gr oup
\u0120d ay
\u00d0 \u00b8
\u0120l ast
\u0120c le
\u00c3 \u00a4
\u0120ap pe
Y ou
\u0120im port
\u0120act iv
d s
\u0120des c
\u0120c ent
E N
\u0120 **
r ay
a w
\u0120pre v
m e
r on
\u0120 ed
\u0120r un
\u0120pro ble
E S
\u0120again st
o ot
C ategory
\u0120ex pl
\u0120sign ific
\u0120n ame
l ess
00 00
if y
at ic
\u0120le ad
\u0120Y ou
2 2
\u0120c re
. \u00e2\u0122\u013f
ir c
ul ation
is hed
\u0120ch ild
ab ility
\u0120f am
a j
I T
act er
id ence
\u0120pers on
\u0120qu est
8 0
n ot
t t
e k
\u0120f in
am es
\u0120o per
\u0120ar t
mer ic
\\ [
\u0120d el
4 0
: :
ch n
qu e
\u0120cont rol
\u0120 \u00ce
e ad
h ip
\u0120N ew
\u01201 5
\u0120var i
\u0120p ur
\u0120con f
\u0120st and
\u0120pro per
et a
\u0120h y
L et
ric t
a im
\u0120go ing
F ig
\u0120d em
' re
d a
\u0120de v
\u0120ar ound
! \"
w w
\u0120o pt
i k
\u0120dire ct
\u0120he ad
i ence
it ive
\u0120 u
\u0120in c
\u0120 err
id es
\u0120w r
ur ther
( -
\u0120in formation
ab el
ys is
ph a
\u0120l ife
\u010a \u010a\u0120\u0120\u0120
olog y
s erv
\u0120s l
\u0120S he
\u0120p ost
ot s
\u0120 Z
un d
our ce
at ch
et s
2 3
\u0120p ass
\u0120me as
\u0120ty pe
\u0120to o
ar m
i um
in ation
\u0120e lect
\u0120b re
2 00
ot t
u red
\u0120is s
itt le
at ely
\u0120re al
9 9
eth ing
\u0120op en
i or
\u0120an other
ag n
\u0120c r
-- -
\u0120wor ld
\u0120signific ant
\u0120T r
\u0120W h
\u0120m ight
iss ion
A N
6 4
g en
f or
\u0120result s
r al
de f
ur al
\u0120h um
\u0120 ident
6 0
ain s
\u0120re st
Th is
pe c
\u0120m ult
\u0120t reat
A L
\u0120c are
\u0120cont in
b l
er al
\u0120with in
it al
\u0120follow ing
i vers
\u0120t em
\u0120mod el
iv ed
he re
\u0120la w
] .
\u0120det erm
) \\
ord ing
ent ly
or n
w ays
\u0120st ruct
\u0120 es
\u0120l im
\u0120s ince
\u0120all ow
ak es
\u0120The y
ot e
ater ial
du ct
( \"
math cal
r ation
n ame
le x
f er
ion al
\u0120 X
at t
ar n
th ing
ab ly
\u0120me an
\u0120inte rest
w ork
\u0120be h
} (
\u0120ad v
\u0120D e
\u0120w om
\u0120im p
\u0120S h
\u0120o cc
3 3
\u0120tr y
\u0120p ower
\u0120A meric
\u0120t urn
b y
\u0120m ark
\u0120con dition
\u0120l ist
2 8
\u0120ne ver
\u0120N o
it her
\u0120O n
ent ial
\u0120s ing
ur y
ack age
\u00e2\u0122 \u013e
\u0120s k
2 7
res ent
in ess
\u0120som ething
v es
\u0120add ition
\u0120\u0120\u0120\u0120\u0120\u0120\u0120\u0120\u0120\u0120\u0120\u0120\u0120\u0120\u0120\u0120 \u0120\u0120\u0120\u0120\u0120\u0120\u0120\u0120
al pha
\u01201 4
\u0120C l
\u00d0 \u00bd
t s
\u0120as k
\u0120fe w
iv es
\u0120re ce
\u0120se em
C T
if f
\u0120v is
\u0120exam ple
ch ool
\u0120l ittle
b ers
\u0120ha pp
\u0120cur rent
]\\] .
u le
ro p
\u0120pl ace
\u0120re du
re l
ar g
\u0120re ally
f ace
s on
\u0120b as
pl oy
\u01201 6
\u0120le ft
\u0120 ve
3 5
E x
\u0120f ield
\u00d1 \u0123
\u0120res pect
st and
\u0120giv en
d d
\u0120l ess
\u0120I s
\u0120comm un
\u0120b est
\u0120ch ang
\u0120p op
\u0120b us
m l
c ript
h or
h o
\u0120includ ing
\u0120p ut
y pe
\u0120re le
\u0120g ot
ert ain
ht t
\u00d1 \u0122
\u0120l ow
in ing
os ed
is ed
======== ========
E D
se c
\u0120com e
3 4
\u0120The re
\u0120l ight
\u0120ass oci
gr am
\u0120o ld
\u0120{ #
__ __
o pe
et er
\u0120C on
2 9
\u0120inv est
A S
\u0120R e
\u0120p ot
\u01201 7
\u0120How ever
\u0120c al
\u0120h ig
\u0120go ver
end s
\u0120h ome
\u0120c ap
os s
2 6
\u0120te chn
\u0120m ot
et y
\u0120ne xt
\u0120ar g
\u0120W hat
\u0120* /
a pt
\u0120f our
iv id
\u0120pro b
^ {\\
\u010a\u010a \u0120
\u0120ty p
eng th
re g
ver t
\u012019 9
\u0120cl aim
en e
ab l
\u0120qu e
\u0120b ased
\u0120to p
\u0120g row
\u00c3 \u00a1
in a
\u0120ob serv
\u010a \u0120\u0120\u0120\u0120
ra p
0 5
in c
\u0120$ $\\
um p
\u0120b o
y t
b s
\u00e3 \u0125
\u0120mon th
er y
\u010a \u0120\u0120
C on
\u0120import ant
\u0120s am
ain ing
\u0120P h
\u0120ind ic
C h
\u0120A r
\u0120lar ge
rib ut
\u0120anal ysis
\u0120d er
R e
\u0120he alth
3 7
le ction
\u0120ob ject
\u0120s it
\u0120le g
ar i
fe rence
\u0120b i
\u0120b ro
e e
2 1
\u0120partic ular
\u0120app lic
\u0120desc rib
\u0120pro f
\u0120bel ie
\u0120su gg
\u0120sugg est
\u0120bet ter
, \u00e2\u0122\u013f
u ck
er n
\u0120gover n
\u0120S c
ro ll
3 6
ic ro
m b
m un
ar get
ir d
\u0120ch ange
\u00d0\u00be \u00d0
re en
\u0120m en
u ro
\u0120ob t
\u0120w ater
ap s
ne w
\u0120 ide
cc ess
oc ument
I S
p or
at s
' ll
end ed
## ##
amb da
\u0120d r
I D
3 8
\u0120ab ove
\u0120th ings
\u0120e as
L E
re qu
P ro
\u0120comm on
\u0120P l
R E
' ve
\u0120d en
le g
\u0120 #
\u00e2 \u012a
\u0120p ath
\u0120m ov
h ib
4 5
il ar
\u0120v iew
pl ic
am ma
el ta
\u0120s w
I C
\u0120con ne
t en
3 9
pl es
\u0120th ought
ct or
' d
\u0120h ist
\u0120f ile
( );
ar ing
\u0120A ll
ific ation
\u0120le ast
\u0120F r
\u0120whe ther
\u0120s elf
pp ed
re am
\u01203 0
\u0120produ ct
is k
o or
\u0120 vers
\u0120E x
$ $
\u0120f ail
\u0120h ard
\u0120S o
\u0120char acter
\u0120proble m
\u0120poss ible
\u0120d ays
An d
\u0120pos ition
\u0120al ways
\u0120inv ol
\u0120ex pect
\u01201 1
\u0120did n
\u0120\u00e2\u0122 \u0136
m u
\u0120ha ving
\u0120cons ider
A s
on se
ad d
\u0120w on
a ction
i en
c ur
\u0120T o
\u0120se ver
\u0120g ive
\u0120un til
a ut
\u0120re ason
H E
a ult
\u0120rec ord
\u0120call ed
\u0120 {\\
\u0120re se
\u0120fe el
\u0120kn own
\u0120s ide
\u0120to t
\u0120\u0120\u0120\u0120\u0120\u0120\u0120\u0120 \u0120\u0120\u0120
) /
A C
w are
\u0120v ol
\u0120o pp
op y
orm al
c o
\u0120ev idence
a it
\u0120b ig
i j
as k
end ing
un g
\u0120m us
ra in
\u00c3 \u0143
ac es
a u
\u0120quest ion
\u00c3 \u00b3
\u0120d ue
eg in
\u0120rep resent
ivid ual
\u0120f ree
\u0120c our
\u0120av ail
c he
\u0120or gan
\u0120pro m
\u0120im pro
\u0120hum an
7 0
l abel
\u0120 --
i od
\u0120treat ment
an ces
\u0120bu ild
ac y
olog ical
7 5
\u0120a way
\u0120ke ep
\u0120s ize
\u0120loc al
l ing
\u0120U S
im al
\u0120b ook
\u0120r ad
\u0120Un ited
con t
is on
B ut
} ^{
mathb b
T o
pl ay
h y
aj or
\u0120l ater
\u0120G r
ren ces
et ic
} _
ou th
ir on
p art
th ough
ig ma
\u0120A d
\u0120f urther
ep end
b ar
\u0120el se
\u0120sh own
\u0120in it
re m
\u0120sing le
**** ****
id d
\u0120d iv
al se
C l
\u0120s um
\u0120fam ily
\u0120m ain
} ,
ic le
E T
} _{
h ing
\u0120t ell
= \\
\u01202 5
4 4
\u0120tr ue
\u0120< /
s el
us ion
\u0120n et
em ber
read y
\u0120off ic
ra w
p one
I f
b egin
v ar
\u0120prev ious
\u0120e y
og raph
\u0120exp ression
\u0120com b
in f
\u0120A pp
c ol
\u0120The se
\u0120f ri
8 8
m at
\u0120e ither
\u0120A t
p i
\u0120ind ividual
or g
\u0120or ig
\u0120p red
\u0120Th at
\u0120C ol
u ff
\u0120sever al
e xt
\u0120t imes
\u0120L e
\u0120B l
n a
( '
\u0120sim ilar
\u0120p ay
res p
\u0120St ates
\u0120li k
ress ed
\u0120f ar
it or
6 5
en c
un t
\u0120prov ide
\u0120pro gram
\u0120gener al
A P
us ep
6 9
\u0120W hen
im ent
\u0120ch o
if t
ivers ity
\u0120under stand
\u0120me ans
\u0120pl an
usep ackage
\u0120c irc
\u0120S p
\u0120In d
al f
\u0120ab le
\u0120c ost
\u00e2\u012a \u0134
u ed
our s
n d
n al
\u0120C ourt
\u0120al ong
ip le
ak en
C om
oh n
\u0120ab s
\u0120m ove
\u0120su re
\u0120f ull
ou ps
e red
um e
erg y
0 4
\u0120em ploy
\u0120c ode
\u0120j ud
\u0120we ek
\u0120avail able
is ter
al igned
\u0120b ody
ang le
b ack
\u0120bus iness
\u0120w ar
}$ $
\u0120wh y
s w
\u00ce \u00b1
oc ial
\u0120s chool
\u0120m aterial
\u01201 3
l er
c hed
c le
ore d
\u0120ph ys
\u0120child ren
s er
one y
d iv
\u00e3 \u0122
or th
\u0120in fl
er ing
\u0120sh ort
\u0120se qu
os p
ph i
m on
\u01202 4
\u0120g ame
itt ed
\u0120th ough
\u0120al ready
\u0120hig her
\u0120are a
\u0120dif f
y le
\u0120spec ific
ind ow
\u0120stud ies
\u0120c ertain
\u0120v i
op t
iv ing
\u0120per iod
\u0120th ing
is ing
\u0120to ld
g o
O U
\u0120h old
em pt
m m
s ide
\u0120am ong
ne y
\u0120in f
\u0120val ues
] ;
\u0120 !
ard s
\u0120s ent
r ist
\u0120pro ject
ri ed
\u0120m ajor
id th
d ata
s um
le y
\u0120s at
\u0120O r
\u0120govern ment
\u0120en g
\u0120c ame
op er
ill ion
\u0120R es
F or
\u0120dis e
\u0120des ign
\u0120en ough
\u0120d one
\u0120c ases
\u0120up on
\u0120su per
9 5
\u0120of ten
n s
m it
\u0120ex ist
8 5
\u0120err or
ust om
m ission
lect ed
\u0120e le
\u01201 00
\u0120ke y
\u0120p ri
\u0120par am
as ter
\u0120k ind
\u0120 >
\u0120b en
ol ution
\u0120l ay
\u0120m om
ur s
\u0120p ort
ri es
am ent
\u0120pr im
- \\
\u0120a ction
6 7
m ost
_ \\
v ent
\u0120wom en
\u0120sub ject
\u0120l ot
\u0120c oun
a pe
l ambda
ound s
) :
\u0120C al
\u0120tot al
ep s
\u0120str ong
I I
\u0120c rit
er c
9 0
i que
ab les
\u0120f ore
q rt
e b
ffic ient
O M
\u0120re view
ut es
\u0120m ass
\u0120r ate
\u0120cour se
\u0120p ract
a i
\u0120te am
\u0120\u0120\u0120\u0120\u0120\u0120\u0120\u0120 \u0120
and s
\u0120s ens
\u0120acc ess
T r
ch an
ub l
L L
\u0120p riv
\u0120 ==
\u0120s ays
\u0120ne g
\u0120m or
\u0120how ever
A M
\u0120m il
N o
\u0120t arget
\u0120m ar
\u0120M r
} ^
m od
\u0120level s
ret urn
u x
} )
\u0120t alk
1 00
\u0120pol it
\u0120p ress
\u0120ro om
\u0120sp ace
\u0120p le
\u0120disc uss
a f
a ug
ib ility
\u0120su ccess
o res
\u0120B e
\u0120se en
us e
\u0120d om
\u0120a ir
\u0120associ ated
og n
\u0120tri al
\u0120man ag
\u0120c aus
\u0120to ok
\u0120 ver
f un
u it
al es
\u0120invest ig
\u0120en ergy
\u0120def end
\u0120l o
\u0120f ac
us h
se qu
H ow
en ed
\u0120en c
A D
iv ity
id s
\u0120be g
S E
as ing
ct ed
7 7
6 8
\u0120ph ot
\u0120n ight
\u0120report ed
\u0120ev ent
\u0120a ge
ke y
get her
\u0120to gether
\u0120$ {\\
u ation
n o
or ies
ru g
\u0120b it
i ver
O n
u f
st it
s ub
\u0120on ce
\u010d \u010a
\u0120resp onse
\u00c3 \u00b6
rib ution
b ib
upp ose
4 8
{ {\\
\u0120 )
in ter
\u0120l ove
\u0120gr oups
.. ..
at ors
\u0120e arly
ver age
\u0120acc ount
con om
\u0120re pl
\u0120M ar
b o
g ed
iv al
N ame
\u0120m aking
it le
3 1
\u0120l ower
mathb f
\u0120am ount
cept ion
\u0120con v
v iron
\u0120l og
htt p
cre t
O T
\u0120w rit
5 5
\u0120St ate
\u0120h ouse
t able
on y
A l
oc us
\u0120requ ired
\u0120activ ity
\u0120term s
\u0120w ent
c d
\u0120comp ared
\u0120requ ire
I G
\u0120v ir
os is
\u0120C o
ang u
\u0120ne cess
cl ass
\u0120a ff
\u0120ac ross
\u0120develop ment
e ction
\u0120pot ential
\u0120d ou
\u0120work ing
clud e
A A
U n
\u0120Americ an
I ON
\u0120in j
\u0120che ck
ens ion
\u0120c ult
\u0120f ace
\u0120e ver
\u01205 0
\u0120f inal
i ans
\u0120an n
\u0120im age
b eta
\u0120 %
\u010a\u0120\u0120\u0120\u0120\u0120\u0120\u0120\u0120 \u0120
. '
de x
ro du
\u00d0\u00b0 \u00d0
y stem
\u0120p ast
\u0120( [
\u0120de ath
\u0120e ar
at ory
ict ion
\u0120comp ut
pt ion
en n
at ures
\u0120( [@
m ber
aint iff
ess age
\u00e0 \u00a4
w h
g a
\u0120includ e
on es
\u0120aut hor
\u0120bec ome
\u0120 \u010a
\u0120r ange
i ation
\u0120rel ations
\u0120m icro
\u0120r isk
ud e
^{ -
] ).
\u0120Un iversity
\u0120t w
ar row
\u0120re d
m p
4 7
\u0120te xt
\u0120does n
\u0120ex c
\u0120det ail
\u0120do ing
g es
8 9
The re
I s
med i
\u0120condition s
\u0120J ohn
un e
-------------------------------- --------------------------------
\u00c2\u0142 \u00c2\u0142
th is
et ers
he ad
\u0120iss ue
il on
\u0120me et
6 6
le te
\u0120est abl
\u0120describ ed
\u0120prov ided
ist ic
ut ure
\u0120se par
\u0120b ar
\u0120comp let
\"} ).
4 9
\u0120effect s
\u0120resp ons
\u0120observ ed
resp ond
im ate
\u0120me chan
\u0120chang es
\u0120E ng
\u0120ask ed
our ces
T ype
\u0120f requ
\u0120can not
sp an
\u0120M ay
\u0120sur face
\u0120ro le
ol l
\u0120acc ording
\u0120meas ure
\u0120per cent
\u0120incre ased
ib r
\u0120rese arch
it er
\u0120e p
\u0120m ind
\u0120c ou
t est
\u0120comp any
\u0120y et
at ter
\u0120comp lex
\u0120other s
\u0120incre ase
D E
e q
ac ed
ic y
m y
\u0120t re
\u0120serv ice
\u010a\u0120\u0120\u0120\u0120\u0120\u0120\u0120\u0120\u0120\u0120\u0120\u0120\u0120\u0120\u0120\u0120 \u0120\u0120\u0120
\u0120r ather
\\ _
\u0120m oney
\u0120to ward
el t
\u0120count ry
ir l
\u0120G en
\u0120con duct
\u0120cle ar
ill ed
s igma
\u0120se ction
\u0120Se e
gr ound
\u0120O ne
8 7
S o
\u00cf \u0126
\u0120cont ent
\u0120prote in
\u0120so ft
\u0120s ource
\u0120P r
\u0120struct ure
t ime
\u0120month s
\u0120us er
s qrt
in o
\u0120partic ip
b t
\u0120b ase
\u0120bl ood
\u0120C an
\u0120fact ors
p m
I d
\u0120p ick
\u0120f ive
or der
\u0120n ormal
av a
\u0120c ut
\u0120sign al
\u0120th ird
uc le
\u0120j ob
\u0120stand ard
\u0120comp on
ro id
R es
ri x
\u0120 `
\u0120The n
\u0120c e
IN G
ce ed
\u0120C ar
0 2
P h
\u0120d ri
\u0120cor re
\u0120who le
\u0120c y
og en
\u0120mat ter
C C
n t
~ ~
ul es
\u0120B r
e y
\u0120 id
e qu
\u0120G od
\u010a\u0109\u0109 \u0109
ix ed
\u0120l and
\u0120tem per
\u0120cal cul
epend ent
re w
\u010a\u0109\u0109 \u0109\u0109
ort un
n ow
\u0120F ig
\u0120t aken
\u0120ag re
\u0120s ite
viron ment
o ber
% )
\u0120\u0120\u0120\u0120\u0120\u0120\u0120\u0120 \u0120\u0120
\u0120s ocial
r r
\u0120qu ant
\u0120C oun
ac he
min ist
\u0120cl in
it ch
ir m
\u0120perform ed
\u0120f low
\u0120act ually
\u0120d am
art ment
op h
math rm
8 6
\u0120show ed
0 9
ra ft
op s
A G
O S
. )
a rent
ww w
\u0120lim it
ic ult
st ring
} {\\
ru ction
c hes
\u010a\u010a \u0120\u0120\u0120\u0120\u0120\u0120\u0120
\u0120bel ow
\u0120mult iple
\u0120var ious
al t
\u0120any thing
b it
\u0120spec ial
\u0120vers ion
\u0120h alf
\u0120not hing
\u0120system s
\u0120R ep
\u0120pri or
z e
\u0120show s
\u0120cor respond
\u0120beh av
\u0120dem on
\u0120W ith
o ff
\u0120dise ase
ac hed
> <
i res
\u0120A fter
g amma
\u0120cl os
ab or
\u0120det ect
uro pe
ess ion
\u0120f ood
\u0120bre ak
ens ity
ur ation
\u0120reg ard
ide red
\u0120T e
\u0120appro ach
g ment
\u0120requ est
\u0120pro pos
\u0120ben ef
im um
\u0120M y
\u0120sy n
d ate
om et
\u010a\u010a \u010a
\u0120vi ol
\u0120mem bers
8 4
b ig
\u0120al most
\u0120pos itive
\u0120\u0120\u0120\u0120\u0120\u0120\u0120\u0120\u0120\u0120\u0120\u0120\u0120\u0120\u0120\u0120\u0120\u0120\u0120\u0120\u0120\u0120\u0120\u0120\u0120\u0120\u0120\u0120\u0120\u0120\u0120\u0120\u0120\u0120\u0120\u0120\u0120\u0120\u0120\u0120\u0120\u0120\u0120\u0120\u0120\u0120\u0120\u0120\u0120\u0120\u0120\u0120\u0120\u0120\u0120\u0120\u0120\u0120\u0120\u0120\u0120\u0120\u0120\u0120 \u0120\u0120\u0120\u0120\u0120\u0120\u0120\u0120\u0120\u0120\u0120\u0120\u0120\u0120\u0120\u0120\u0120\u0120\u0120\u0120\u0120\u0120\u0120\u0120\u0120\u0120\u0120\u0120\u0120\u0120\u0120\u0120\u0120\u0120\u0120\u0120\u0120\u0120\u0120\u0120\u0120\u0120\u0120\u0120\u0120\u0120\u0120\u0120\u0120\u0120\u0120\u0120\u0120\u0120\u0120\u0120\u0120\u0120\u0120\u0120\u0120\u0120\u0120\u0120
um ber
L ist
+ \\
in ary
\u00c3 \u00a5
) (
\u0120f ocus
er o
c ular
T hat
\u0120mom ent
C H
St ring
\u0120ev al
ie f
\u0120lik ely
\u0120 ut
\u0120m ax
\u0120con cer
\u0120cons idered
pp ing
\u0120| |
\u0120con cent
7 9
u k
\u0120m akes
\u0120P at
\u0120mark et
\u0120point s
\u0120exper ience
\u0120cre ate
O P
\u0120( *
\u0120obt ained
\u0120he art
l oad
\u0120s ix
\u0120we ight
\u0120\u00e2\u0122 \u013a
\u0120fact or
i ke
\u0120 q
\u0120bl ack
\" )
l og
S h
\u0120cl ose
w here
\u0120spe ct
\u0120dev ice
on al
l im
\u0120Y ork
\u0120s us
\u0120a ffect
\u0120look ing
\u0120try ing
id ing
\u0120ne ar
com m
ip s
\u0120se x
\u0120occ ur
\u0120 er
\u0120Ch rist
\u0120t able
\u0120s il
\u0120c ross
\u0120h tt
\u0120c reat
\u0120diff icult
itt ing
\u0120d ig
\u0120demon str
V al
\u0120r at
\u0120c ustom
Fig ure
ide o
a ff
c ing
re c
\u0120c ity
\u0120c ause
angu age
\u0120m agn
^ \\
t d
\u0120f uture
\u0120 ill
\u0120d rug
st ruct
\u0120d at
\u0120\u0120\u0120\u0120\u0120\u0120\u0120\u0120 \u0120\u0120\u0120\u0120\u0120\u0120\u0120
b ut
r ho
\u0120h om
C ont
\u0120ent ire
\u00ce \u00bf
\u0120de cre
is c
\u00e2\u0122 \u00a6
\u0120proper ty
\u0120belie ve
\u00e0 \u00b8
\u0120st e
\u00d0\u00b5 \u00d0
\u0120you ng
\u0120m ut
00 1
or ld
\u0120st ring
val ue
il t
\u0120add ed
i et
p ly
\u0120cons ist
\u0120f av
\u0120F l
\u0120pa rent
i i
se e
) *
\u0120n at
t ies
\u0120t ax
\u0120hist ory
tern al
I M
\u0120e conom
\u0120B y
\u0120an g
\u0120applic ation
\u0120inte gr
\u0120sol ution
\u0120tr ad
am a
\u0120A ss
0 8
\u0120rel ated
A r
ul ated
\u0120includ ed
\u0120min utes
b all
$ -
-------- ----
y ear
\u0120fr ont
b ody
\u0120cont r
// //
\u0120he ld
\u0120reg ion
ful ly
ro s
0 7
\u0120can cer
row n
A B
\u0120st ory
\u0120ey es
\u0120an sw
\u0120pa per
et ition
\u0120def ined
\u0120C ent
\u0120A N
\u0120ide a
res h
\u0120 ur
itt en
\u0120fl u
\u0120ass ess
\u0120w alk
0 3
ch ie
ly ing
\u0120de cl
4 2
A pp
], [@
im port
\u0120I N
4 6
\u0120S te
\u0120se ason
\u0120add ress
\u0120relations hip
he l
\u0120P ar
\u0120l oss
\u0120p ubl
\u0120rece ived
ad a
ag ed
\u0120ser ies
\u0120p o
\u00d1 \u0125
\u0120f all
in n
r s
\u0120de al
\u0120sim ple
\u0120get ting
st er
\u0120bl ock
C ol
ht ml
\u0120respect ively
and om
ag ing
\u0120l ength
en ces
en ing
x i
\u0120m aint
\u0120att ack
\u0120im mun
\u0120m iss
\u0120c amp
\u0120wor ks
u ly
\u00ce \u00b9
\u0120net work
\u0120v oid
* ,
S he
\u0120him self
ou d
it ing
\u0120ac cept
pec ially
\u0120app l
\u0120wor ds
\u0120= >
d ro
\u0120T HE
m itted
d elta
iz ing
\u0120col l
i qu
led ge
\u0120M ore
5 7
\u0120significant ly
is es
p ose
\u0120\u00c2 \u00a7
U S
ol s
ple ment
\u0120$ (
w ise
\u0120th us
li ke
n u
n et
ver se
b ed
I R
t ic
\u0120def in
em s
19 9
\u0120H is
\u0120b ound
\u0120t um
\u0120E n
\u0120f ig
\u0120le arn
\u0120h ours
W hen
le q
\u0120m illion
is f
.. /
\u0120M c
\u0120perform ance
5 9
\u0120sa w
\u0120l ink
sel ves
\u0120M ed
ob al
\u0120A m
\u0120start ed
\u0120st ates
\u0120priv ate
om s
\u0120cont act
\u0120need ed
\u0120\u0120\u0120\u0120\u0120\u0120\u0120\u0120 \u0120\u0120\u0120\u0120
\u0120E urope
\u0120dec ision
m ore
\u0120to day
\u0120diffe rence
fe rences
\u0120v ia
\u0120ad j
um n
\u00c2 \u00b1
g ree
0 6
\u0120pop ulation
> </
A ll
\u0120p ain
\u0120b ad
I L
\u0120want ed
4 3
}} \\
\u0120addition al
\u0120method s
\u0120M an
\u0120in hib
\u0120fil m
an ced
ind ing
d o
\u0120ch all
\u00c3 \u00bc
\u0120sh all
\u0120int rodu
il i
\u0120C or
\u0120some one
\u0120G e
ut h
\u0120e ff
m iss
oc al
\u0120m other
\u0120pat tern
\u0120there fore
\u0120l ines
\u0120N ot
in ks
an ks
\u0120infl u
end er
\u0120pat ient
ove red
\u0120ass um
w ith
\u0120commun ity
ta u
\u0120grow th
) }
com p
ist ance
\u0120c ard
7 6
/ *
I P
the ta
T R
\u0120en vironment
\u01202 1
\u0120part y
g l
\u0120P ol
oc r
\u0120in du
\u0120seem s
ens ive
\u0120beg in
o ke
\u0120com pl
! [
\u0120its elf
f ile
7 8
\u00d8 \u00a7
\u0120a chie
at us
V iew
at ively
\u00ce \u00bd
\u0120dis play
ov ed
\u0120d ie
ome ga
W h
\u0120l ive
\u0120d est
y ch
4 1
\u0120impro ve
\u0120qu ick
\u0120wor d
re et
g ress
\u0120A ct
am ed
\u0120prob ably
at al
\u0120D o
\u0120h ost
\u0120wh ite
b ased
y p
ill s
E M
\u0120I m
\u0120f oot
P R
\u0120appe ar
\u0120att empt
ar c
v ant
od es
t imes
def ine
\u0120rec ogn
y ing
\u0120inst ead
\u0120se arch
\u0120fun d
c ome
\u0120M e
yn am
il ities
\u0120t aking
\u00ef \u00bc
e ks
\u0120re ve
\u0120D r
us ed
\u0120need s
\u0120p an
\u0120mot ion
ur ch
\u0120\\ \\
\u0120\u0120\u0120\u0120\u0120\u0120\u0120\u0120 \u0120\u0120\u0120\u0120\u0120
un ch
il es
\u0120invol ved
C L
5 6
idd le
\u0120mod els
c ode
\u0120beh ind
\u0120st ep
part ial
\u0120pre t
\u0120gr ound
com es
\u00e4 \u00b8
g est
M y
\u0120f alse
um ents
st ant
ed eral
p ri
\u0120g irl
h a
\u0120C ity
d es
an a
O C
\u0120ad minist
D ata
____ ____
T able
\u0120orig inal
\u0120proble ms
\u0120serv ices
\u0120p age
\u0120qu ite
st e
\u0120ex act
l ight
\u0120ex ec
8 3
P E
ol ve
es e
\u0120com es
\u00e2\u0122 \u0132
S e
I V
\u0120every thing
it es
.. .\"
al ed
\u0120defend ant
ast ic
inf ty
\u0120k new
\u0120look ed
\u0120G u
\u010a \u0120\u0120\u0120\u0120\u0120\u0120\u0120\u0120\u0120\u0120\u0120\u0120\u0120\u0120\u0120\u0120\u0120\u0120\u0120\u0120\u0120\u0120\u0120\u0120\u0120\u0120\u0120\u0120\u0120\u0120\u0120\u0120
\u0120expect ed
\u0120 ess
x im
\u0120C ont
\u0120dist ribution
F F
\u0120ant i
O L
\u00c2 \u00b0
\u0120v o
ec ause
\u0120produ ction
\u0120temper ature
\u0120Q u
ic ense
\u0120\u00c2 \u00b1
\u0120in put
s ize
\u0120s ense
\u0120pred ict
\u0120e lement
\u01202 9
\u0120dist rict
\" );
o o
\u0120f ire
\u0120qu ality
] )
av ing
\u0120l es
\u0120comp ar
\u0120col or
he m
\u0120st ay
ar r
P S
\u0120s em
\u0120l oad
\u0120init ial
}$ ,
\u0120ins ide
b ook
d ocument
\u01202 2
\u0120Th us
\u0120necess ary
\u0120cont ract
\u0120est im
\u00c3 \u00a3
\u0120N ational
\u00c3 \u00a7
\u0120D ep
\u0120ind ust
\u0120d im
\u0120$ $
s k
\u0120gen e
pos ition
U R
\u0120G erm
\u0120b ring
\u0120n ucle
ro te
\u0120P res
er ation
U T
\u0120w in
\u0120fri end
\u0120rec ent
. _
\u0120inst all
d om
\u0120ed uc
rib ute
M S
ul ations
\u0120es pecially
in ally
b f
\u0120w ait
\u0120J an
\u0120out side
\u0120 ...
\u0120s on
a e
\u01202 8
\u0120b ir
I m
\u0120pro ced
\\ \\
d en
ad es
\u0120long er
5 3
r am
\u0120im plement
ut ions
\u0120pres ence
qu ad
}$ .
b ox
\u0120sim ply
\u0120D ef
\u0120person al
\u0120exper iment
\u0120do or
ill i
\u0120j o
l ig
r c
\u0120iss ues
\u0120t iss
\u0120p ie
ad o
W ith
\u0120pr int
\u0120\u0120\u0120\u0120\u0120\u0120\u0120\u0120 \u0120\u0120\u0120\u0120\u0120\u0120
b re
\u0120clin ical
\u0120( -
\u0120 \u00e2
ra v
\u0120fe atures
\u01204 0
\u0120a verage
\u0120d ocument
g ing
v ious
\u0120f ather
\u00ce \u00b5
\u0120ev ents
\u0120bec ame
it ude
ist ics
her s
b or
\u0120prov ides
' )
\u0120w all
\u0120c apt
A t
\u0120st ra
rap y
\u0120be gan
\u0120ph ase
st ate
\u0120sam ple
\u0120cor rel
b ject
\u0120determ ined
\u0120set t
\u00d0 \u00bb
\u0120wom an
\u0120spec ies
w ord
\u0120A g
\u0120med ia
cc ording
ol ic
f ield
+ +
\u0120sequ ence
\u0120comp lete
\u0120f em
r im
w idth
\u0120wr ong
d is
\u0120sur v
s l
\u0120eff ort
\u01202 7
\u01202 6
\u0120C D
\u0120form er
5 4
\u0120mus ic
ar ily
D elta
\u0120d u
cl usion
ym b
\" .
ref ore
\u0120l anguage
\u0120sat isf
os ition
\u0120corre ct
\u0120B o
\u0120out put
m ary
]{} ,
p re
\u0120di agn
\\ *
cript ion
ra ction
\u0120commun ic
ron ic
B y
\u0120rem ain
av es
de red
s u
\u0120s low
\u0120dep end
\u0120fun ctions
\u0120g e
u ous
\u0120press ure
con st
\u0120o x
\u0120/ *
\u0120eas y
\u0120m ole
R NA
\u0120l ack
\u0120O F
\u0120pl aintiff
\u0120str ateg
\u0120stud ents
ell ing
\u0120imp act
d own
\u0120pol y
EN T
\u0120for ce
\u0120c opy
\u0120v ideo
P l
osp ital
\u01202 3
\u0120 ir
\u0120w indow
p x
\u0120h or
\u0120hy p
\u0120c ry
old s
^ *
\u00d1 \u0131
\u0120pr inc
\u0120A b
8 2
o on
\u0120pre c
\u0120typ es
\u0120h ot
\u0120P art
\u0120pol ice
air s
\u0120run ning
it ary
\u0120so on
a ctions
O D
\u0120phys ical
\u0120st ri
\u0120d ate
\u0120st op
\u0120h ope
er a
id ge
\u0120ac id
S S
th at
\u0120sam ples
\u0120turn ed
\u0120N e
\u0120quest ions
\u0120g ave
it ation
ann el
\u0120anal y
\u0120der iv
\u00c3 \u00a8
\u0120tr ack
\u0120mem ory
\u0120wr itten
\u0120f elt
ag s
\u0120P er
E n
7 2
\u0120is n
s im
l ist
\u0120com ing
\u0120c red
\u0120le ave
\u0120che m
\u0120R ev
h aps
ic on
\u0120mem ber
\u0120present ed
\u0120follow ed
um b
\u0120cre ated
\u0120l ate
\u0120hand s
\u0120offic ial
7 4
ribut ed
\u010d \u010a\u0120\u0120\u0120
\u0120polit ical
\u0120right s
6 3
\u0120} ,
\u0120he av
\u0120s le
par am
\u0120effect ive
| \\
\u0120t en
\u0120for ward
\u0120product s
og le
til de
5 2
\u0120p ack
\u0120re v
\u0120P e
\u0120direct ly
\u0120val id
\u0120was n
\u0120s ound
c m
et t
8 1
G r
\u0120eval u
\u0120con fig
\u0120tri ed
\u0120const it
\u0120E l
\u0120b ur
\u0120sc reen
\u0120param eters
\u0120ele ments
eg a
\u0120in dex
te red
\u0120proper ties
\u0120gen es
\u0120se lect
s m
ag ue
k en
\u0120! =
htt ps
ch ar
\u0120B rit
\u0120G o
\u0120we eks
\u0120E d
de v
le ase
\u0120ag o
li er
ri ef
\u0120prim ary
\u0120nat ural
ul a
ult s
\u0120incre asing
\u0120wr ite
\u0120Com p
\u0120r andom
G et
\u0120con text
\u0120n ull
\u0120ident ified
\u0120follow s
\u0120const ant
h ood
\u0120know ledge
\u0120m i
l in
\u0120P a
\u0120d ark
\u0120W orld
\u0120pol icy
ish ing
\u0120acc om
ac c
N ot
\u0120cons um
\u0120build ing
\u0120determ ine
\u0120al leg
7 3
\u0120D ist
\u0120prev ent
em ents
p oint
\u0120W ar
\u0120cont roll
\u0120answ er
\u0120l ost
\" ;
\u0120fr ame
\u0120D es
\u0120R eg
\u0120new s
ib er
\u0120im medi
f s
\u0120are as
\u0120b ott
\u0120m ach
tr ans
\u0120de ep
7 1
\u0120g as
cl us
5 8
am m
ap an
il s
\u0120S outh
\u00c3\u00a3 o
\u0120s ort
\u0120great er
\u0120inv ention
\u0120M in
\u0120In c
om a
\u0120wh ose
\u0120av oid
\u0120soft ware
lement ary
k n
\u0120S ch
\u0120w atch
cul ate
\u0120trans fer
fun ction
u ary
o e
******** ********
\u0120p ict
\u0120 ;
\u0120ex cept
\u0120stat us
in clude
\u0120lim ited
\u0120m ap
5 1
} (\\
\u0120p s
\u0120develop ed
fe ction
C D
\u0120fav or
\u0120I I
\u0120bas is
\u00d0 \u00ba
\u0120b ed
\u0120A f
P s
] ^
The y
\u0120rele ase
ar ray
\u0120N orth
\u0120ref er
\u0120m is
\u0120appl ied
\u0120tra ining
\u0120R uss
\u0120he ard
\u0120 ?
ic a
\u0120al though
\u0120med ical
\u0120st yle
ic les
l ish
as ons
\u0120f ul
\u0120ab ility
\u0120them selves
\u0120A ug
\u0120m ention
\u0120In tern
i us
ang er
\u0120A ust
\u0120n ature
\u0120m ice
ren g
ograph y
g n
ap ter
\u0120S im
ri al
\u0120mat ch
\u0120the ory
6 2
ve re
\u0120pre p
her n
m en
\u0120a w
\u0120se cur
o ch
\u0120J ust
\u0120aut om
\u0120play ers
\u0120S m
err or
\u0120\u00d0 \u00bf
\u0120redu ced
\u0120Tr ump
\u0120s al
\u0120any one
\u0120ar ray
\u0120particular ly
i os
p ite
\u0120p ull
\u0120previous ly
ru pt
M A
pl ate
\u0120r ound
\u0120opp ortun
le ge
\u0120ve h
\u0120resp ond
\u0120comp an
ers on
\u0120includ es
\u0120us ually
r angle
ag er
I F
\u0120s n
pp er
f ra
\u0120gr ad
\u0120re ference
\u0120un d
\u0120S ome
\u0120f ast
E rr
\u0120l iving
\u0120d raw
\u0120The refore
u el
\u0120al one
\u0120re n
\u0120b ox
\u0120re comm
\u0120f ight
\u0120a ud
\u0120O ct
)$ .
iv il
\u0120O ur
im ents
\u0120D av
ell ow
\u0120lay er
\u0120we bs
cd ot
\u0120cont ain
6 1
l or
ash ing
\u0120co ver
is ions
A d
ro ph
\u0120gener ally
\u0120F urther
ol es
\u0120re pe
\u0120: =
ac hes
pr int
\u0120de ad
z y
D e
ear ch
fe red
\\] )
r ite
* ~
\u0120S uppose
ig en
\u0120He re
\u0120& &
\u0120fri ends
P L
\u0120h ref
\u0120pro t
\u0120bro ad
\u0120publ ished
Q u
\u0120an im
sc ript
ill ing
\u00cf \u0125
or ks
iv en
S D
\u0120n ational
pr il
\u0120to wn
ot ic
\u00c3\u00b3 n
\u0120not e
p en
\u0120behav ior
\u0120d riv
j oy
\u0120D NA
\u0120jud gment
\u0120dire ction
\u0120spe ed
T H
E L
\u0120im ages
\u0120v an
\u0120exp ress
\u0120( \\[
g or
\u010a \u0120\u0120\u0120\u0120\u0120\u0120
\u0120sh are
os ph
\u0120s qu
\u0120l os
\u0120im pl
m et
\u0120Wh ile
in ated
Val ue
an ch
\u0120num bers
\u0120L a
\u0120off ice
\u0120ind ependent
\u0120stat ement
\u0120on line
\u0120diffe rences
\u0120op in
\u0120t ou
ac ement
( $
\u0120S T
\u0120claim s
\u00e3\u0123 \u00ae
\u0120Pres ident
\u0120M arch
aug h
\u0120[ *
ur g
\u0120comm and
\u0120st age
\u01206 0
\u0120d ro
ar ies
\u0120Coun ty
\u0120art icle
\u00e2\u0122 \u0125
is ms
\u0120S ince
\u0120acc ur
os ure
\u0120m essage
\u0120t akes
m ega
un k
\u0120act ive
\u0120c and
ou l
ve y
\u0120un it
\u0120htt p
ter m
\u0120pract ice
\u0120comp et
\u0120eng ine
\u0120v ict
ent al
^ [@
\u00cf \u0123
9 4
\u0120N ow
\u00ce \u00bc
t op
he st
\u0120g ames
\u0120off er
\u0120al tern
\u0120b and
\u0120per fect
\u0120reg ular
h am
\u0120pret ty
\u0120et c
p ath
\u0120Americ a
\u0120correspond ing
\u0120d ynam
\u0120ro ad
\u0120H ar
\u0120F irst
\u0120 \u00c3\u00a9
\u0120A rt
\u0120Ch ar
\u0120l ed
\u0120J une
B C
O r
\u0120say ing
\u0120br ought
e ah
\u0120spe ak
l ength
\u0120re ach
m ing
\u0120secur ity
\u0120const ruct
\u0120 \u010a\u0120\u0120\u0120\u0120\u0120\u0120\u0120\u0120\u0120\u0120\u0120\u0120\u0120\u0120\u0120
\u0120appro pri
c ell
at ives
\u0120en s
\u0120H ouse
E d
\u0120fe ed
\u0120b rain
de ed
\u0120ro t
und red
il le
er ve
l ation
\u0120Se pt
b on
\u0120pres ident
c ast
\u0120V al
) =
r an
at form
O h
\u0120te le
L e
\u0120neg ative
\u0120prote ct
}} $
z a
\u0120appro xim
\u0120dou ble
\u0120201 6
\u0120b all
in ate
p ret
ar ning
) );
\u0120writ ing
p an
\u0120f ine
\u0120I d
s upp
\u0120B ar
om en
\u0120contin ue
\u0120or d
U N
\u0120d ensity
ch o
eth yl
O ne
\u0120ant ib
our nal
\u0120obt ain
D o
att le
\u0120J apan
or ph
\u0120c am
\u0120201 2
\u0120G l
al ing
v ention
\u0120 ult
\u0120cent er
\u0120st reng
\u0120\u00c3 \u0142
\u0120H er
\u0120201 4
\u0120t itle
S C
\u0120trad ition
ur b
f rom
c all
p at
\u0120lar ger
ibr ary
it ter
\u0120h on
ay er
\u0120201 3
\u0120st ress
uf act
\u0120en h
\u0120cle an
\u0120ar r
oci ety
u ge
\u0120meas ured
\u0120propos ed
\u0120C ir
\u0120fin anc
u ild
ef ul
\u0120r ule
ous ly
\u0120w ays
\u0120he ar
ma x
y ond
\u0120ser ious
s ing
es tern
\u0120dev ices
\u0120pur pose
\u0120A P
\u0120gr ant
ren ch
gor ith
\u0120hy dro
\u0120rec ently
\u0120rel ative
\u0120201 5
\u0120p oor
ef ore
\u0120f re
ent y
\u0120t er
\u0120I S
\u0120Ph ys
\u0120sit uation
u i
\u0120back ground
el ine
\u0120att ention
, '
## #
\u010a\u0120\u0120\u0120\u0120\u0120\u0120\u0120\u0120\u0120\u0120\u0120\u0120\u0120\u0120\u0120\u0120 \u0120\u0120\u0120\u0120\u0120\u0120\u0120
M od
oc ks
\u0120high ly
l a
port s
N ow
a ign
\u0120tre ated
ire ct
\u0120Al though
\u0120every one
\u0120mor ning
M L
\u0120l iter
\u00cf \u0122
\u0120Ch ina
\u0120allow ed
\u0120S u
\u0120ass ert
erv ice
S uppose
\u00d1 \u012d
\u0120r ates
\u0120vis it
ps i
\u0120O R
\u0120S un
\u0120pur ch
9 7
vers ion
\u0120 \u00e2\u012a\u0134
\u0120in form
b and
O mega
\u0120arg ument
\u0120S ystem
\u0120gl obal
s pec
\u0120des igned
\u0120w rote
n on
G F
\u0120A pril
\u0120J uly
\u0120 il
\u0120S er
\u0120o il
ell ant
ch ange
\u00d1 \u012e
ail y
\u0120ac qu
\u0120 ri
ic o
f n
m ar
\u0120su it
\u0120st ar
\u0120res id
\u0120char ge
\u0120prof ess
\u0120dist ance
om y
\u00d0 \u00b2
\u0120inter n
9 8
\u0120is ol
ul ate
\u0120p hen
\u0120 \u00d1\u0123
re me
\u0120be aut
\u0120cap ac
b i
\u0120ro w
\u0120f a
9 6
\u0120produ ced
\u0120pro p
ond on
\u0120M on
\u0120bir th
com ing
} =
\u0120d a
\u0120m ount
il ed
\\] .
it ness
\u0120su fficient
h ors
\u0120s old
\u0120us ers
l o
\u0120Gen eral
i ated
\u0120g raph
\u0120us eful
C al
iz es
G amma
P ar
\u0120ar ch
\u0120Aug ust
m pt
ot ed
0000 0000
\u0120inst ance
\u0120stat ic
\u0120f ixed
\u0120h ar
\u0120m ag
\u0120establ ished
g y
ac ing
\u0120S w
\u0120se lected
E X
w as
p id
\u0120201 7
O bject
\u0120fail ed
\u0120part s
)$ ,
\u0120giv es
ce mber
\u0120Jan uary
\u0120de gree
ers hip
\u0120he at
m ap
ob ile
){ #
\u0120oper ation
\u0120W est
\u010d \u010a\u0120
N ew
\u0120som et
eps ilon
\u0120m id
ir ing
\u0120pro ceed
or ing
\u0120en joy
\u00c4 \u0125
\u0120my self
\u0120201 0
\u0120J ud
\u0120caus ed
\u0120bu ilt
\u0120ident ify
\u0120div ided
\u0120b al
\u0120de b
\u0120cent ral
\u0120A p
ps ilon
\u0120detail s
\u0120se cret
C A
\u0120D em
\u0120won der
\u0120lead ing
\u0120def ault
\u0120m er
ab ase
right arrow
\u0120tra vel
\u0120h undred
O W
in ct
\u0120individual s
\u0120im m
\u0120frequ ency
\u0120compon ents
\u0120sur pr
g u
\u0120exper ien
\u0120[ **
\u0120ann oun
ove mber
\u0120techn ology
ent ially
kn own
j s
an cy
\u0120work ed
\u0120st im
\u0120deriv ative
\u0120b ank
\u0120sc ale
T ext
\u0120rat io
\u0120e ight
\u0120mat rix
S c
e es
\u0120vo ice
arg in
\u0120leg al
\u0120ear lier
\u0120th reat
\u0120manag ement
\u0120prote ins
\u0120F rom
\u0120sub stant
\u0120cho ice
\u0120loc ation
\u0120l at
en er
\u0120p en
\u0120201 1
\u0120\u0120\u0120\u0120\u0120\u0120\u0120\u0120\u0120\u0120\u0120\u0120\u0120\u0120\u0120\u0120 \u0120\u0120\u0120
v are
\u0120pr ime
\u0120complet ely
z ed
ub e
C E
\u00e3\u0122 \u0124
oc ation
\u0120find ings
\u0120count ries
\u0120f air
\u0120agre ement
un ction
ex p
l ock
at he
S P
k ing
\u0120h it
v oid
\u0120eas ily
id a
\u0120\u0120\u0120\u0120\u0120\u0120\u0120\u0120\u0120\u0120\u0120\u0120\u0120\u0120\u0120\u0120 \u0120
/ >
\u0120l as
\u0120cl ust
ib ly
\u0120read ing
ore m
w ide
i ency
\u0120s we
\u0120not ice
\u0120fil es
oc ol
\u0120ps ych
\u0120d og
f ort
\u0120 ----------------
\u0120hy per
Y es
\u0120sit es
\u0120pr ice
\u0120K ing
\u0120M ich
f ord
ight s
\u0120ne igh
\u0120comput er
\u0120Eng lish
\u0120we b
\u0120com ment
\u0120O b
p ublic
\u0120a im
\u0120sa f
\u0120current ly
\u0120chang ed
\u0120T H
se mb
\u0120on es
\u0120mov ed
z z
\u0120Sept ember
\u0120\\ <
gr oup
\u0120f ederal
\u0120man ufact
oper ator
pl it
\u0120toward s
ur t
\u0120em erg
\u0120\u00d0 \u00b2
\u0120tiss ue
\u0120wor th
\u0120R ed
a ur
\u0120Dist rict
\u0120compan ies
_ .
el le
\u0120F eb
\u0120c ook
\u0120\u00d0 \u00bd
\u0120requ ires
a res
c ap
\u0120webs ite
or age
ff er
\u0120dec ided
\u0120qu al
r ate
\u0120cont ains
\u0120th ous
\u0120ar m
ition s
\u0120re cept
\u0120fail ure
ou ble
\u00d1 \u0129
\u0120sc he
\u0120Oct ober
\u0120mod e
\u0120rele ased
\u0120im ag
\u0120loc ated
od ing
\u0120em b
\u0120pl ant
\u0120compon ent
\u0120dri ve
\u0120form ed
r is
B S
\u0120bo ard
\u0120un ique
if ically
\u0120look s
\u0120n ames
\u0120seem ed
\u0120rem ember
\u0120be yond
\u0120In t
\u0120car ry
\u0120no vel
ro om
un n
c il
( (
\u0120ext ra
\u0120cult ure
\u00d9 \u0126
\u0120concer n
\u0120exp ressed
\u0120in n
\u0120mult i
\u0120St ud
\u0120con cept
\u0120p or
\u0120w ife
D es
\u0120aut hors
in it
\\ '
\u0120Tr ans
\u0120ph one
b b
\u0120allow s
\u0120co ol
---- --
ol der
\u0120Dep artment
op l
\u0120bu y
T T
\u0120indust ry
l ink
\u0120circ um
\u0120desc ript
\u0120mean ing
\u0120ple ase
W ell
\u0120s ong
\u0120contr ast
\u0120opt ion
i \u00c3\u00b3n
\u0120tum or
\u0120equ al
ir med
F ile
\u0120ex erc
act ive
\u0120cont aining
F rom
\u0120pre fer
p ace
\u0120sl ight
i ate
\u0120comm it
ward s
\u0120support ed
\u0120tr ust
\u0120cle arly
vare psilon
\u0120num er
ot hes
\u0120t im
U LL
un der
ut ed
^ +
O f
d im
9 2
k a
S et
te e
\u0120ro ll
v is
var phi
\u0120somet imes
us er
S ec
un s
\u0120dis cl
\u0120quick ly
as m
\u0120n or
\u0120camp aign
\u0120adv ant
\u0120play ed
os ite
M P
\u0120appe al
od ies
aug ht
if ul
A fter
\u0120c yt
\u0120exact ly
* .
qu est
\u0120rem ains
\u0120M od
\u0120find ing
\u0120gener ated
\u01203 1
\u0120C ons
\u0120cou ple
\u0120De cember
\u0120go es
\u01203 2
\u0120R ec
\u0120appropri ate
per ty
\u0120could n
\u0120inter view
unt u
over n
\u0120adj ust
S A
\u0120small er
================ ================
\u0120em ail
ir t
\u0120cl osed
\u0120ar riv
\u0120over all
ak er
\u0120hig hest
ri er
) -
\u0120act ual
\u0120a x
9 3
\u0120J e
\u0120happ ened
\u0120e ffic
\u0120Af ric
ar a
\u0120N ovember
\u0120D et
../ ../
if orn
\u0120sle ep
enc ies
\u0120conne ction
b um
F r
\u0120St ring
\u0120re asons
\u0120rel ig
h and
wh ich
\u0120opt ions
at o
D ef
\u0120cand id
r ad
\\ ,
\u0120trans port
\u0120im pos
\u0120w ide
\u0120crit ical
\u0120appe ars
ir it
* ]{}
\u0120rele vant
iqu es
E C
ang ed
\u0120 upp
ur ance
k ay
\u0120st ru
a is
\u0120v s
\u0120pop ular
o very
ch i
am ple
\u0120L icense
r um
F L
\u0120elect ro
U L
ve c
\u0120\u0120\u0120\u0120\u0120\u0120\u0120\u0120\u0120\u0120\u0120\u0120\u0120\u0120\u0120\u0120 \u0120\u0120
\u0120vol ume
\u0120show ing
\u0120med ium
\u0120app ly
\u0120us es
\u0120al gorith
r ound
\u0120parent s
or ge
\u0120P R
\u0120\u00ce \u00bc
lic k
\u0120rest rict
\u0120st ore
l ib
st atic
\u0120st ation
\u0120C he
ric k
ind ex
ashing ton
\u0120inter pret
\u0120n ode
\u0120p air
\u0120mil itary
\u0120fe et
i ers
ic ip
! !
\u0120S en
se ction
\u0120h ospital
\u0120part ies
\u0120fig ure
B e
\u0120exper iments
\u0120think ing
. [
\u0120m ur
\u0120O f
\u0120conne ct
\u0120understand ing
clud ed
\u0120Rep ublic
\u0120f at
} _{\\
ra el
\u0120m al
an o
\u0120L ondon
v ision
\u0120200 8
a el
bo ard
m ark
00 2
. $$
ru ary
\u0120form ation
en ge
\u0120read y
id ay
\u0120se c
\u0120ha ir
R T
\u0120f ear
\u0120th row
\u0120produ ce
\u0120activ ities
\\ <
w ell
\u0120le arning
\u0120H ol
A dd
} ;
\u0120concent ration
\u0120fin ally
ist ry
\u0120interest ing
\u0120dam age
\u0120fil ed
\u0120/ >
\u0120S chool
S upp
\u0120sub sequ
iforn ia
\u0120educ ation
\u0120C ong
\u0120vir t
\u00cf \u0124
\u0120p ul
\u0120fe ature
\u0120go al
\u0120pro of
==== ==
9 1
as te
O V
k y
\u0120opin ion
\u0120M ark
\u0120immedi ately
\u00e3\u0122 \u0123
\u0120chall eng
\u0120200 9
S im
\u0120st aff
\u0120ful ly
c os
\u0120material s
\u0120y es
\u0120ob vious
Err or
\u0120streng th
\u0120set ting
\u0120g reen
\u0120play er
ers ion
re p
\u0120rece ive
\u0120param eter
\u0120201 8
\u0120m iddle
\u0120st ated
\u0120through out
T ime
\u0120u int
\u0120ser ver
\u0120_ _
pt r
for ce
\u0120He alth
\u0120h ab
st ances
\u0120vari able
M an
\u0120pro gress
al le
\u0120Brit ish
\u0120g one
\u0120m it
P P
f o
ot es
ad em
p y
ymb ol
\u01203 5
st ance
b ase
\u0120A ccording
\u0120result ing
\u0120redu ce
\u0120bl ue
\u0120Aust ral
} ^{\\
) ^
or ney
\u0120conne cted
\u0120r ules
\u0120meet ing
b in
\u0120st o
In t
\u0120sk in
\u0120as pect
\u0120W illi
\u0120reg ions
\u0120inter nal
\u0120ex hib
K ey
\u0120cost s
\u0120( $
\u0120pass ed
p ol
\u0120B ro
operator name
\u0120contin ued
\u0120col lect
\u0120con sequ
\u0120car ried
\u0120E m
st yle
T ER
\u0120coun ter
\u0120ne arly
\u0120on to
\u0120dem and
\u0120financ ial
\u0120influ ence
\u0120your self
it em
\u0120t ask
il ing
00 3
\u0120ch ance
\u0120m ess
l angle
* -
as c
ate ver
\u0120pl aced
) **
\u0120abs ol
\u0120ro b
\u0120col lection
\u0120get s
\u0120c it
\u0120l ives
\u0120def ine
\u0120he aring
\u0120H igh
ms g
\u0120let ter
\u0120separ ate
\u0120l inks
\u0120indic ated
d ed
over line
os es
\u0120b rief
\u0120b inding
\u0120move ment
\u0120T w
\u0120sc ore
\u0120max imum
\u0120process es
\u0120w idth
\u0120line ar
R I
\u0120li qu
o at
\u0120let ters
D A
\u0120M us
\u0120not ed
. \\
ot o
\u0120play ing
N S
\u0120re action
are st
\u0120mov ing
\u0120ref lect
\u010d\u010a \u010d
\u0120AN D
\u0120\" \"
\u0120sol id
\u0120t our
\u0120applic ations
om b
\u0120return ed
w orks
col or
\u0120he ight
P A
\u0120 ign
\u0120ent er
o oth
\u0120vari ables
p a
it ro
pl ing
\u0120n amed
\u0120ext ract
f ont
\u0120field s
pect ive
\u0120med ic
\u0120P ark
as is
\u0120A T
\u0120be comes
\u0120y ield
\u0120the rapy
rel ated
\u0120m ort
om as
\u0120M or
\u0120B ecause
f ree
\u0120re ached
ro y
\u0120s i
\u0120 \u010a\u0120
\u0120bro ther
as ion
\u0120per haps
^{ (
\u0120giv ing
\u0120ke pt
}} (
\u0120gr and
\u0120sy mpt
as p
cul es
ing er
Re ferences
\u0120rel atively
He re
\u0120f it
\u010a\u0120\u0120\u0120\u0120\u0120\u0120\u0120\u0120 \u0120\u0120\u0120\u0120\u0120
b ra
Cl ass
\u0120form s
h old
\u0120reve aled
\u0120stra ight
\u0120E ven
at ur
\u0120 \u00d8
\u0120or g
\u0120w ild
\u0120it ems
\u0120veh icle
\u0120and roid
if orm
\u0120ex ists
\u0120d ied
st ream
\u0120h our
\u0120An g
AT E
W hy
\u0120to ol
\u0120inst it
\u0120sc ient
gr ad
\u0120ve ctor
\u0120s ources
\u0120S ub
\u0120inj ury
D R
ot he
ber g
\u0120trans form
\u0120mod ern
\u0120ut il
\"} ,
\u0120start ing
\u0120j ury
O O
om ic
\u0120h ous
am in
d f
m aterial
r ant
\u00ce \u00b7
\u0120f ix
erv ed
ut ive
\u0120int r
fun c
om an
\u0120sa fe
}} _
\u0120regard ing
\u0120Cal ifornia
\u0120S an
\u0120bott om
cl es
\u0120b oy
\u0120s end
\u0120conv ention
at in
\u0120other wise
ot ion
\u0120report s
[ '
\u0120particip ants
\u0120talk ing
\u0120inter action
\u0120st uff
\u0120st eps
\u0120comb ination
\u0120major ity
ell a
\u00c3 \u0125
( ).
\u0120ed ge
l en
\u0120th ick
\u0120cont ribut
\u0120dom ain
) ).
\u0120p ow
\u00d1\u0123 \u00d1\u0124
\u0120 ]
ic it
er ate
S ee
e ch
\u0120D on
ay out
A b
con s
\u0120W ashington
\u0120 ^
\u0120pl us
\u0120bas ic
c ase
\u0120may be
ren d
\u0120ch annel
\u0120circ uit
\u0120inc or
ur ity
\u0120res istance
\u0120pl aces
\u0120econom ic
\u0120pick ed
l ong
\u0120G et
\u0120z ero
gr ams
ens es
\u0120un s
\u0120 ~
ab led
> >
Com p
\u0120in fection
\u0120coun sel
\u0120begin ning
\u00c3\u00a9 s
pl ace
//// ////
M e
f il
\u0120anim als
\u0120we ak
\u0120More over
P C
\u0120concent r
\u0120c ivil
\u0120Feb ruary
\u0120( \\
\u0120would n
\u0120tr uth
\u0120col umn
\u0120un its
\u0120m ale
\u0120pa id
Tr ue
T est
ge q
\u01209 0
c an
\u0120se ven
\u0120( **
\u0120\\ ,
\u01208 0
ok en
\u0120book s
\u0120j ur
\u0120establ ish
\u0120s un
ad y
\u0120sh ot
in y
\u0120 eth
\u0120US A
\u0120opportun ity
\u0120happ en
it ors
\u0120port ion
\u0120 um
\u0120F rench
\u0120object s
s is
\u0120achie ve
en ame
\u00cf \u0127
\u0120calcul ated
\u0120Dav id
on ic
\u0120\u0120\u0120\u0120\u0120\u0120\u0120\u0120\u0120\u0120\u0120\u0120\u0120\u0120\u0120\u0120 \u0120\u0120\u0120\u0120
\u0120mechan ism
us es
\u0120ph osph
\u0120suggest ed
\u00d0\u00b5 \u00d0\u00bd
\u0120anal ys
\u0120D ata
\u00d0 \u00b4
\u0120ey e
\u0120O ther
\u0120syn the
\u0120man ner
n y
\u0120l ib
: \"
' );
\u00e7 \u013c
\u0120j e
\u0120const ruction
\u0120redu ction
t em
\u0120Is rael
\u0120\u0120\u0120\u0120\u0120\u0120\u0120\u0120\u0120\u0120\u0120\u0120\u0120\u0120\u0120\u0120 \u0120\u0120\u0120\u0120\u0120
\u0120mach ine
#### ##
\u0120pl atform
\u0120met al
\u0120w ave
\u0120equ ation
\u00e3\u0123 \u0126
\u0120b ul
\u0120hist or
ag on
i ance
ock et
stit ute
ger y
\u0120k ill
\u00d0 \u00bc
\u0120c ore
\u0120process ing
or ry
\u0120function al
\u0120app arent
C S
\u0120sus p
d i
er ia
\u0120upp er
\u0120Pa ul
\u0120w a
j e
ot ype
\u0120test ing
\u0120rem oved
\u0120com plic
B ig
ar ter
[ ^
\u0120tou ch
ri a
\u0120demonstr ated
\u0120h op
\u0120consist ent
\u00c3 \u0132
ines e
\u0120l ab
\u0120detect ed
` `
ing u
\u0120A c
\u0120v ill
\u0120ag ree
\u0120sp read
\u0120conduct ed
\u0120Cent er
\u0120met ab
\u0120proced ure
l s
\u0120D is
\u0120t ree
\u0120l abel
\u0120- >
\u0120ne ut
\u0120cho ose
\u0120wh om
\u0120A M
g ar
n es
\u0120happ y
\u0120magn etic
\u0120intern ational
R A
\u0120200 7
\u0120test s
\u0120equ ival
] :
\u0120Wh ite
\u0120Al so
oc yt
\u0120n orm
\u0120ad apt
\u0120indic ate
\u00e7\u013c \u0126
\u0120P al
\u0120stat ist
z ym
C t
\u0120ro ot
\u0120a ctions
F orm
\u0120ra pid
\u0120sw itch
\u0120vari ety
I A
\u0120h arm
\u0120Se ction
\u0120set s
om in
\u0120pe ak
al y
\u0120l if
augh ter
\u0120co ord
x y
l am
\u0120c ast
\u0120care er
ach ing
le vel
\u0120saf ety
\u0120gl ass
\u0120fl oor
\u0120T ex
d ot
\u0120t end
\u0120un c
\u0120P ublic
x x
\u0120w id
\u0120sp ent
\u0120ar rest
\"> <
i pp
\u0120p etition
d r
\u0120cl ient
\u0120t al
\u0120T able
\u0120A ut
\u0120reason able
semb ly
\u0120I L
\u0120ne arest
\u0120pro ve
\u0120prov iding
fra k
O ver
ab il
\u0120sh ape
z en
\u0120ad opt
\u0120Europe an
ct ors
\u0120administ ration
\u0120mem br
M E
\u0120struct ures
\\] ,
\u0120< <
re y
\u0120n one
% ,
' :
\u0120n il
c i
t es
\u0120l abor
\u0120res ources
\u0120compar ison
us ing
\u0120s en
\u0120vis ual
C P
\u0120c ert
\u01202 000
wo od
j o
\u0120sh oot
\u0120bl og
\u0120d aily
\u0120pie ce
re ly
\u0120m ac
c her
\u0120Fig ure
on ent
\u0120character istics
\u0120ext rem
\u0120sa ve
\u0120n ice
\u0120law s
H T
\u01209 5
\u0120rem ov
ell ig
\u0120g old
\u01204 5
Ex ception
\u0120cent ury
\u0120J ack
\u0120sh ift
\u0120comp r
ra int
ol ved
ust r
in ner
\u0120k illed
\u0120pl ate
ot ing
j ection
\u0120fem ale
pect ed
\u01203 7
\u00ce \u00b2
\u0120cap ital
il ies
\u0120 );
\u0120capac ity
ail s
\u0120f resh
a ud
ens ions
* (
ing ly
\u0120N et
ens ure
ot al
\u0120A rm
d ing
\u0120sc en
sh ip
\u0120Dem ocr
\u0120P M
\u0120b ab
p o
\u0120exist ing
\u0120un f
\u0120pan el
w hat
at ically
\u0120benef its
inf o
ab s
\u0120In st
F A
p ir
stit ution
ou te
\u0120w at
\u0120it em
\u0120In ter
\u0120m ist
\u0120c ru
\u0120rem ove
\u0120d ut
5 00
\u0120beaut iful
\u0120sub str
in i
w id
\u0120mention ed
idd en
ric es
\u0120Ind ian
con fig
\u0120pre m
\u0120Com mission
\u0120al bum
ar th
\u0120Y our
\u0120200 6
lic t
\u0120L aw
\u0120pict ure
\u0120repl acement
\u0120dis s
um an
v est
ify ing
\u0120c old
]\\] ,
P D
\u0120contin uous
\u0120ens ure
\u0120I D
\u0120Bl ack
\u0120p un
\u0120appe ared
\u0120stud ied
ens ional
in put
\u0120h us
if ier
\u0120defin ition
\u0120Ind ia
T E
\u010a\u010a \u010a\u010a
h ow
\u0120typ ically
it z
\u0120reg ul
\u0120d anger
\u0120cr im
app ing
\u00c3 \u00aa
\u0120se lection
\u0120ra ised
\u0120c op
\u0120fact s
ann ed
St ate
\u00e3\u0123 \u00ab
\u0120exp osure
\u0120A D
\u0120dat abase
\u0120w ind
f low
rom e
\u0120b urn
\u010d \u010a\u0120\u0120\u0120\u0120\u0120\u0120\u0120
\u0120cl ub
\u0120tr ade
P ath
[ ]
\u0120am pl
os en
\u0120incre ases
\u0120se vere
\u0120the rm
se y
il os
et te
h ost
\u0120S ec
\u0120ass ume
act ers
\u0120discuss ed
d b
\u0120feel ing
I B
= '
\u0120d oc
It em
\u0120gu ess
ag o
st art
ES S
\u0120prep ared
\u0120det ection
\u0120sol utions
end ant
\u0120dr ink
\u0120open ed
\u0120me ant
\u0120vict im
\u0120Further more
\u0120Res earch
\u0120J ames
ic ed
\u0120r ace
st on
\u00e4 \u00ba
i pe
S ize
\u0120m o
D on
\u0120m ill
\u0120c up
con ne
\u0120trans ition
ot a
u ced
\u0120Ass oci
\u0120respons ible
\u00c3 \u00a6
\u0120sp in
indow s
\u0120la ug
\u0120communic ation
\u0120approxim ately
\u0120expl ain
\u0120d ed
\u0120R ober
\u0120H am
\u0120w itness
F T
ic ks
\u0120impro ved
or ter
\u0120p ackage
00 5
\u0120b ud
00 4
r ical
ru it
c or
U M
so ft
\u0120O h
\u0120cl ick
\u0120b ond
\u0120w ood
\u0120up d
\u0120heav y
enc ing
ig ation
ensure math
\u01203 6
\u0120l ip
\u0120st ream
AN D
\u0120expl ained
\u0120dou bt
c ar
\u0120success ful
} ,\\
\u0120n a
\u0120( \"
pro du
\u0120L ist
\u0120rad io
? '
os ing
\u0120opt im
\u0120r out
\u0120liqu id
\u0120Go ogle
c ount
\u0120ro ck
\u00c2\u0142\u00c2\u0142 \u00c2\u0142\u00c2\u0142
\u0120m ig
t itle
\u0120b acter
\u0120O ff
ist ant
b an
\u0120l ock
\u0120ag ent
\u01207 0
\u0120oper ator
\u0120occ up
c irc
\u0120alleg ed
ograph ic
math frak
\u0120P C
\u0120T V
\u0120s ell
ph p
h an
\u0120recomm end
/ (-
ag ement
\u0120par a
\u0120S pec
\u00c4 \u00b1
ld ots
h al
\u0120U K
\u0120comm erc
\u0120meas ures
j ava
\u0120M ost
app a
\u0120dis miss
p arent
\u0120gu y
\u0120trans l
\u0120pre par
\u0120M ac
\u0120p ark
\u0120certain ly
\u0120want s
\u0120ev olution
E E
\u0120serv ed
\u0120techn iques
ang ing
\u0120introdu ced
\u0120R ich
\u0120 \u00cf\u0126
as ma
\u0120sex ual
le m
\u00c4 \u0123
' ;
\u0120S y
c in
\u0120for ces
B l
S ub
/ (
\u0120Intern ational
AL L
* )
\u0120Ch inese
ar io
r ide
\u0120G overn
im ony
\u0120J er
\u0120leg is
\u0120E v
\u0120con vers
\u0120elect ric
.... ....
\u0120fore ign
\u0120\u0120\u0120\u0120\u0120\u0120\u0120\u0120\u0120\u0120\u0120\u0120\u0120\u0120\u0120\u0120 \u0120\u0120\u0120\u0120\u0120\u0120\u0120
sp ace
\u0120C H
t re
\u0120lead s
\u0120exp and
ub untu
\" />
S H
\u0120benef it
ur a
ri an
fe rent
F alse
\u0120g un
b olds
AN T
\u0120to ols
y ou
\u0120pro grams
ic ial
\u0120experiment al
\u0120old er
\u0120bel ong
bolds ymbol
\u0120sur round
en ced
\u0120ess ential
n b
\u0120ins ert
as cular
ite ct
tr ue
\u0120inter face
\u0120n ation
\u0120grow ing
\u00ce \u00ba
O ut
\u0120comb ined
\u0120J ew
\u0120b order
go ing
\u0120D an
U p
\u0120def ense
\u0120Germ an
\u0120b orn
\u0120P ress
lic ation
\u0120R E
\u00e4 \u00bb
\u0120chall enge
ri ent
\u01204 8
\u0120mot or
im age
L A
\u0120ide as
\u0120v ent
\u0120h uge
\u0120strateg y
\u0120com ments
\u0120profess ional
R ead
et ry
\u0120subject s
\u0120A tt
C ON
\u0120k in
[ \\
id em
v o
\u0120R el
\u0120f ib
it ivity
( ),
( {\\
\u0120than k
\u0120st orage
m ail
\u0120St reet
\u0120F e
\u0120a ward
\u0120ne ur
\u0120mon itor
or row
p ers
\u0120where as
\u0120col lected
\u0120P re
\u0120w ish
\u0120up date
ur rent
\u0120A dd
\u0120un less
id el
P T
** )
u a
\u0120st ock
\u0120descript ion
it a
\u0120spec ifically
\u0120activ ation
ra z
\u0120s av
ar ant
\u0120des pite
\u0120opt ical
\u0120\" [
\u0120advant age
k t
\u0120ser ve
\u0120k ids
\u0120pr ison
ic ity
c hen
AR T
op en
\u0120Cong ress
\u0120control s
\u0120T wo
\u0120test ed
\u0120exerc ise
L ambda
\u0120 vert
\u0120em pt
\u0120M iss
\u0120sum mer
\u0120S am
\u0120m g
\u0120R NA
\u0120k id
ul f
. ](
oth ing
\u00ce \u00bb
\u0120slight ly
\u0120del ay
\u0120P ost
\u0120rem aining
a a
\u0120pro port
\u0120conf irmed
r d
R eg
ot imes
\u0120mole cular
\u0120surv ival
)/ (-
\u00d0\u00be\u00d0 \u00b2
\u0120E ast
l t
\u0120chem ical
\u0120M art
\u0120altern ative
\u0120p al
ed s
\u0120c at
\u0120dist inct
is d
h i
\u0120indu ced
\u0120N OT
C an
ip ment
\u0120fil ter
\u0120s ch
\u0120\u0120\u0120\u0120\u0120\u0120\u0120\u0120\u0120\u0120\u0120\u0120\u0120\u0120\u0120\u0120 \u0120\u0120\u0120\u0120\u0120\u0120
\u0120v ac
\u0120char acters
ow s
\u0120N ULL
\u0120f if
\u010a\u010a \u0120\u0120\u0120\u0120\u0120
\u0120E ach
\u0120miss ing
\u00e2\u0122 \u00a2
\u0120r ing
\u0120C irc
\u0120work ers
\u0120agre ed
\u0120\u00d0 \u00b8
\u0120m m
S I
\u0120n ut
\u0120200 5
\u0120pl ans
\u0120v el
os c
b a
00 01
\u00e3\u0124 \u012d
\u0120compl aint
\u0120c atch
\u0120drug s
\u0120C ON
is ation
\u0120N ote
\u0120investig ation
k g
\u0120call s
\u0120foot ball
\u00d9 \u0127
b m
u ing
\u00d9 \u0128
\u0120pro s
q l
as ure
Cal culate
A V
id ers
\u0120techn ique
\u0120Eng land
\u0120we ap
Con text
\u0120ent ry
p ass
\u0120sc ience
on na
\u0120record s
\u0120abs or
\u0120U p
\u0120associ ation
\u0120dig ital
\u0120occur red
\u0120analy zed
\u0120den ied
\u0120sur gery
\u0120fam ilies
\u0120oper ations
The n
dd en
\u0120W il
\u0120health y
\u0120affect ed
\u0120hold ing
\u0120m ix
\u0109\u0109 \u0109\u0109
\u0120cy cle
ed om
\u0120f irm
C M
\u0120min or
\u0120r ul
\u0120rel ation
\u0120S up
\u0120enc our
\u0120comp osition
\u0120w arm
\u00e3\u0123 \u0139
Ex p
\u0120an imal
z on
it is
ri age
\u0120tem por
\u0120\u00ce \u00b1
\u0120tradition al
\u0120card i
\u0120Gr oup
p c
che ck
iz ations
c oh
act or
\u0120of fered
\u0120offic er
\u0120open ing
\u01203 4
ell ed
\u0120prob ability
\u0120wh atever
k in
C O
ar p
\u0120sympt oms
\u0120g al
\u0120e fficient
\u0120fr ag
\u0120correl ation
\u01203 3
\u0120inst r
it led
fect ed
\u0120d rop
\u0120min imum
\u0120abs ence
. *
ign ment
\u0120ch ain
}} {
\u0120algorith m
ist ory
\u0120T O
\u0120suggest s
\u0120ch rom
\u0120hus band
\u0120dist ributed
\u0120un a
\u00e5 \u0131
D S
g s
\u0120cor por
and er
i at
\u0120c ir
\u0120s ociety
E vent
\u0120record ed
\u0120tr ig
\u0120F ound
in ity
ant ly
\u0120discuss ion
\u0120com fort
res ents
\u0120r ank
\u00e6 \u013e
} -
\u0120b one
\u0120big gest
\u0120jud ge
P O
\u0120h ol
\u0120ent ered
h ouse
\u0120sp irit
r ich
olog ies
\u0120class es
\u0120her self
y a
\u0120stud ent
\u0120con ver
\u01204 2
& \\
\u0120gener ation
\u0120M al
\u0120\u0120\u0120\u0120\u0120\u0120\u0120\u0120\u0120\u0120\u0120\u0120\u0120\u0120\u0120\u0120\u0120\u0120\u0120\u0120\u0120\u0120\u0120\u0120\u0120\u0120\u0120\u0120\u0120\u0120\u0120\u0120 \u0120\u0120\u0120\u0120\u0120\u0120\u0120\u0120\u0120\u0120\u0120\u0120\u0120\u0120\u0120\u0120\u0120\u0120\u0120\u0120\u0120\u0120\u0120\u0120
\u0120form at
\u0120su dden
' .
alle l
k i
\u0120Bo ard
\u0120htt ps
\u0120bre ast
\u0120circum stances
G L
\u00c3 \u0142
d et
B L
pr ime
\u0120sy mb
p ost
\u0120caus es
\u0120estim ated
\u0120sit u
\u0120E very
\u0120sc ript
o z
\u0120organ ization
\u0120T est
\u0120f ra
^ \u00e2\u012a\u0134
\u0120b ill
\u0120e at
\u0120fa ith
\u0120sum mary
ym ph
\u0120der ived
pos es
A ct
\u0120repe ated
\u0120hand le
se m
\u0120K e
. **
() );
\u0120inc ome
\u0120B ank
\u0120S upp
\u0120ex ternal
al ysis
\u0120b ow
\u00c3 \u0139
U E
\u0120B en
uff er
\u0120effort s
\u0120sm ooth
th on
\u0120int ended
ion e
\u0120j oint
\u0120A ir
' ]
\u0120C am
sub set
\u0120convention al
ot yp
\u0120Pl aintiff
\u0120vol t
r or
\u0120no ise
\u0120C a
\u0120( (
\u0120Wh y
wh ile
i able
P er
\u0120Su per
\u0120r ise
\u0120prote ction
land s
\u0120know s
g in
um in
In dex
\u0120O ver
ol ar
\u0120cry st
\u0120res olution
Ph i
\u010a\u010a \u0120\u0120\u0120\u0120\u0120\u0120\u0120\u0120\u0120\u0120\u0120
O ur
\u0120gu ys
\u0120nucle ar
\u0120ext ent
cont ent
C s
iv o
In fo
S er
\u0120ce le
ill a
\u0120 \u00c5
\u0120d ry
S ome
iz er
ob ject
\u0120ag ents
ck now
\u0120en zym
\u0120Ge orge
\\ |
\u00e3\u0123 \u00a8
\u0120W ell
es is
s f
}} }
us hed
\u0120behav i
\u0120require ments
\u0120sh ared
\u00e2\u0122 \u00b2
: **
\u0120\u00d0 \u00be
\u0120L ou
\u0120An y
\u0120S uch
\u0120stru gg
S p
\u0120ch urch
i very
\u0120c overed
\u0120le aving
\u0120m obile
\u0120interest ed
ir ty
\u0120Tex as
c s
\u0120st ars
\u0120G reen
R ec
ER S
n ers
\u0120k it
\u0120diagn osis
b urg
\u0120d aughter
\u00e0 \u00a5
C ode
\u0120rep resents
\u0120st re
\u0120pattern s
\u0120respons es
\u0120D i
g reg
\u0120off ers
\u0120e lection
il it
el ess
\u0120d oll
ist ed
\u0120decre ased
\u0120announ ced
\u0120im plic
P r
\u0120// /
\u0120re b
ap ers
\u0120Can ada
ace book
\u0120n orth
y r
v an
\u0120ear th
\u0120se a
re es
\u0120cred it
\u0120creat ing
-------------------------------- ----------------
Con fig
v a
\u0120200 4
\u0120l atter
B I
spec ific
\u0120co e
\u0120P ort
c ks
\u0120an c
k appa
\u0120Un der
\u0120reg ist
he t
v ille
n ight
\u0120employ ees
bl ock
te rest
\u0120ar ms
Wh ile
\u0120Germ any
) ?
\u0120do se
\u0120wait ing
F ield
\u0120Fr ance
ra pe
\u0120man if
\u0120down load
m ic
\u0120supp ly
\u00c3 \u00ba
o om
Tr ans
mb ox
\u0120m es
\u0120I ll
\u0120B er
\u0120tra in
\u0120l it
\u0120di et
\u0120sent ence
ph one
S igma
\u0120sc ene
\u0120S ur
\u0120D E
\u0120L ord
l ook
\u00d1\u0124 \u00d0\u00be
\u0120test imony
\u0120c row
\u0120m outh
s ens
\u0120w el
\u0120cit iz
\u0120Sm ith
omet ry
et es
\u0120sh ip
pl ed
G R
\u00e3\u0123 \u0141
n ode
\u0120incor por
\u0120cont ained
\u0120prof ile
~~ ~
\u0120s ales
\u0120st ood
c el
il de
in der
M T
r as
i ant
ans ion
\u0120e arn
\u00c2 \u00bb
\u0120R em
ul in
\u0120su ff
\u00ef\u00bc \u012e
\u0120liter ature
\u0120add ing
il arly
\u0120exist ence
ap pe
\u0120pl ants
am eter
\u0120C R
\u0120201 9
\u0120sy mm
\u0120su st
\u00e2\u0122 \u012c
\u0120offic ers
\u0120te ac
\u0120lar gest
\u0120dri ver
\u0120m ental
\u00c2 \u00b7
** ]{},
\u0120D ay
cur rent
\u0120analys es
\u00e3\u0123 \u00a6
\u0120es c
_{ {\\
\u0120commerc ial
\u0120author ity
\u0120describ e
' '
\u0120st d
\u0120Com mun
\u0120T om
\u0120 --------
\u0120A re
\u0120v ote
non umber
l ast
\u0120driv ing
\u0120Mich ael
\u0120squ are
\u0120Y es
\u0120 \u00e0\u00a4
\u0120st ories
\u0120O ut
\u0120proper ly
\u0120interest s
h r
s ible
\u0120lo op
H and
\u0120refer red
\u0120b es
ber t
n am
\u0120th read
\u0120sh ut
\u0120B oth
\u0120in deed
\u0120mechan isms
\u0120sign als
\u0120concentr ations
J ust
fr ame
\": \"
\u0120m aster
\u0120D el
\u0120f ol
\u0120stand ing
\u0120C ode
\u0120sp ot
j ust
\u0120c atal
\u0120learn ed
\u0120complet ed
\u0120p ure
\u0120ep is
\u0120car bon
st ract
\u0120New s
\u0120quant um
\u00c2 \u0143
n ormal
r un
\u0120trans mission
\u0120lat est
r ange
\u0120empt y
\u0120supp osed
B A
Y S
M O
\u0120pe ace
\u0120sto pped
\u0120err ors
\u0120mod ule
. [@
\u0120l ibrary
\u00c3\u0143 a
\u0120r an
\u0120official s
ste in
u ate
\u0120measure ments
fr ont
w rite
\u00e3\u0123 \u00a7
\u0120bre ath
\u0120neigh bor
\u0120Se cond
abl a
\u0120import ance
Q L
\u0120g ain
ol f
\u0120partic les
\u0120E q
\u0120inter actions
i h
c a
i as
\u0120W estern
out hern
op ic
j a
\u0120p ool
ear s
\u0120M et
ER T
ind uced
ed y
N T
n um
\u0120w ire
pt ions
\u0120app rec
\u0120el im
ro g
\u0120rem ained
p age
\u0120pur poses
\u0120decre ase
\u0120gen etic
\u0120in sp
\u0120pol ic
\u0120custom ers
\u0120membr ane
\u0120m ir
\u0120a head
\u0120poss ibility
\u0120invol ve
\u0120f arm
i pped
\u0120bu ffer
\u0120C O
\u0120M ary
{ {
( &
\u0120jur isd
\u0120M at
\u0120Un ion
\u0120n an
\u0120l ung
\u0120/ **
M I
\u0120are n
am ily
\u0120cons erv
\u0120st reet
F irst
\u0120D uring
\u0120but ton
ari ant
\u0120app ar
\u0120Ch urch
\u0120Sup reme
\u0120remain der
\u0120pl ane
\u0120Christ ian
roll er
\u00e3\u0123 \u00af
is hes
\u0120s outh
d y
\u0120power ful
\u0120direct or
\u0120crim inal
\u0120equival ent
k er
\u0120att ract
======== ==
\u0120m a
\u0120sequ ences
\u0120ex change
P e
ic ians
ur l
G G
How ever
\u0120recept or
a fter
\u0120Te chn
\u0120mov ie
m em
\u0120P D
c ore
\u0120ar bit
\u0120J es
\u0120 ing
\u0120un iform
b orn
\u00e3\u0124 \u0134
\u00ce \u00af
an i
\u0120con clusion
R S
\u0120out come
\u0120con vert
\u0120Coun cil
\u00c3 \u00a2
l if
\u0120great est
iven ess
ond ay
oy al
\u00d9 \u012c
or a
ur ies
c ence
\u0120\u00d0 \u00ba
\u0120ha ven
\u0120200 3
\u0120S al
re ct
am ing
ane ous
\u0120st able
ad er
\\ !
ru ctions
\u0120ele v
\u0120b row
\u01203 8
w in
\u0120hyp othes
\u0120c as
ant ic
\u0120exper t
\u0120fin ite
\u0120Comp any
\u0120elect ron
\u0120ident ity
\u0120I II
\u0120Pe ople
\u0120indic ates
\u0120project s
\u0120b illion
\u0120G reat
A meric
\u0120f ell
\u0120oper ating
ject ed
\u0120equ ipment
\u0120g onna
\u0120en em
\u0120ins urance
In ter
\u0120le aves
Y eah
\u0120fl at
\u0120ext ended
\u0120c ateg
\u0120orig in
f aces
\u0120B el
\u0120b ra
\u0120flu id
\u0120St at
\u0120In stitute
\u0120ex ception
\u0120help ed
\u0120spe ech
\u0120f lex
\u0120m ouse
\u0120( !
\u0120see ing
\u0120event ually
ang es
n abla
I O
\u0120Ad dition
ain e
\u010a\u010a \u0120\u0120\u0120\u0120\u0120\u0120
\u0120p our
\u0120pl asma
ag en
\u00d9 \u012a
m d
\u0120d ra
\u0120controll ed
so le
\u0120A lex
onal d
K E
Ar ray
amp ions
\u0120app oint
st ood
\u0120em ot
clud ing
\u0120return s
re al
\u0120Cl ass
\u0120ne uro
\u0120exc ell
d raw
re r
er ic
\u0120hold s
\u0120 ------------
\u0120maint ain
c rib
N e
\u0120second ary
\u0120di ab
\u0120n av
\u0120\u00d0 \u00b4
ord s
\u0120belie ved
, -
\u0120cam era
\u0120happ ens
AT ION
\u0120most ly
\u0120T ra
Col or
\u0120mil es
and o
\u0120appar atus
N D
\u0120dise ases
as ks
} )$
\u0120vir us
\u0120C A
\u0120conf irm
v i
\u0120200 1
Im age
R L
\u0120K ore
\u0120A L
\u0120fil ms
n ce
\u00c3\u00b6 r
\u0120for th
ad s
ri e
\u010a\u0120\u0120\u0120\u0120\u0120\u0120\u0120\u0120\u0120\u0120\u0120\u0120\u0120\u0120\u0120\u0120 \u0120\u0120\u0120\u0120\u0120\u0120\u0120\u0120\u0120\u0120\u0120
an es
\u00e2\u0122\u013f .
icro soft
\u0120a ware
A tt
/ \\
N E
\u0120jo in
\u0120substr ate
ri ve
\u0120represent ed
opy right
ord ers
\u0120F inally
ty p
\u0120re ality
\u0120run s
mit tee
\u0120cele br
\u0120mus cle
\u0120cr ime
\u0120S et
\u0120rel ief
201 5
\u00c3 \u00b1
201 3
F l
\" ,\"
\u0120R ob
ill er
\u0120b right
s es
\u0120school s
\u0120sur vey
\u0120S ervice
\u0120pre gn
re ate
\u0120occ urs
\u0120gener ate
\u0120char ged
\u0120spect rum
xt ure
let s
\u0120N S
\u0120vel oc
\u0120est imate
} +
pl ify
\u0120stat ute
ell o
\u0120A R
M ap
() )
ge bra
\u0120F OR
\u0120l ov
a per
\u0120bal ance
est s
ar ian
\u0120lead er
\u0120ser um
________ ________
] ),
\u0120config uration
\u0120fund ament
P H
ort hern
yn c
ith ub
\u0120exam ples
ili ar
T C
\u0120dig it
\u0120te ams
c are
\u0120m el
mat rix
#### ####
\u0120M any
l n
s a
og ene
\u0120b attle
m as
ap i
y e
\u0120develop ing
\u0120extrem ely
\u00e3\u0123 \u00aa
\u0120di ag
ist ent
s he
ial og
\u0120M ex
\u0120Japan ese
An y
\u0120V ir
\u0120mor ph
\u0120H all
act ory
\u0120j ournal
\u0120fin ished
\u0120M em
\u0120than ks
ard en
\u0120in ner
\u0120sign ed
\u01206 4
\u0120a f
\u0120R ead
it ory
ist or
am mat
oc y
we ight
cre te
\u0120ex cess
\u00d1 \u0127
it ative
A ss
\u0120volt age
el es
ab ilities
D L
\u0120ch ronic
A re
\u0120R et
\u0120S E
\u0120for ced
\u0120t ro
\u0120li ver
\u0120Ob ama
\u0120exam ined
il er
nb sp
\u0120effic iency
\u0120( )
\u0120de bt
en a
om orph
\u0120sh o
F C
\u0120s rc
il der
\u0120del ivery
\u0120Fr anc
D is
\u0120F acebook
\u0120g ar
\u0120ne ither
ad ing
\u0120 ice
\"> </
\u0120pro sec
\u0120200 2
\u0120aut o
\u00d0\u00b0 \u00d0\u00bd
201 2
s ource
\u0120ag ency
\u0120Wh ich
201 4
\u0120evalu ated
ortun ately
\u0120Cal culate
\u0120thous ands
F R
\u00e5 \u012a
F I
wid et
d ots
\u0120col on
al ian
am ine
app ro
\u0120f ish
\u0120subsequ ent
riv ate
\u0120cy cl
\u0120ch osen
\u0120Ph il
\u0120represent ation
\u0120high light
\u0120-- >
\u0120ad ult
\u01205 00
M R
im b
\u0120achie ved
ific ations
\" ).
\u0120call ing
l ocal
M ay
re hen
\u0120r ich
\u0120Fr iday
sm all
widet ilde
\u0120de g
\u0120Jud ge
\u0120des ired
L og
\u0120al coh
R ep
\u0120assess ment
\u0120m ixed
\u0120arch itect
\u0120\u00c3 \u0139
\u0120Found ation
\u0120iss ued
\u0120t ag
\u0120 \u00d7
t i
S te
\u0120M ag
\u0120measure ment
\u0120n ic
anc ing
\u0120Circ uit
\u0120tw enty
om es
d ependent
\u0120s pl
\u0120Col lege
ash ion
\u0120} );
Re quest
G o
\u0120Mr s
\u0120direct ed
\u00e1 \u00bb
\u0120poss ibly
\u0120col lege
\u0120substant ial
\u0120manufact ure
\u0120att orney
\u0120int ellig
ol a
c up
\u0120girl s
in st
ak ed
\u00c3\u00a4 n
resh old
\u0120expl icit
) \"
\u0120V ol
---- ---
\u0120to x
\u0120p aint
\u0120view s
is her
fe e
\u0120D iv
et ric
ut or
f a
ok ing
ic ated
\u0120bab y
os a
\u0120int ent
\u0120am b
** (-
\u0120t ight
\u0120dep th
\u0120T ime
\u0120crit eria
\u0120typ ical
\u0120s in
C o
res ult
\u0120 iron
The se
X X
\u0120s ession
\u0120Sc ience
ic ian
====== =
C ount
\u01207 5
\u0120ext ension
j ud
\u0120con d
\u0120rece iving
\u0120Le ague
\u0120prote cted
\u010a\u010a \u0109
\u0120position s
\u0120disc overed
\u0120v ary
\u0120chang ing
\u0120n arrow
C he
\u0120Fr ank
ip her
\u0120he ter
p ack
\u0120N a
\u0120f illed
\u0120The orem
\u00d8 \u00b1
T S
ri end
1 01
) [
I ST
\u0120th in
\u0120ang le
\u0120M A
\u0120dest roy
N ode
\u0120Rober t
\u0120B ay
\u0120n od
2 000
\u0120U sing
\u00e5 \u00ae
m t
y gen
\u0120f raction
G B
\\ {
}} _{
\u0120j ump
stand ing
\u0120per t
\u0120Sun day
\u0120eas ier
\u0120net works
ac le
/ **
\u01203 9
ost ic
te en
os h
\u0120L em
\u0120sk ills
l aw
\u0120environment al
\u0120M il
\u0120l ived
\u0120allow ing
M ethod
\u0120B i
\u0120under lying
\u0120al t
\u0120l ymph
\u0120sp end
as hed
\u0120investig ated
a ren
\u0120ch air
m es
cre ate
ocyt es
S M
\u0120M o
\u00e3\u0123 \u012e
D ate
)/ (
\u0120or dered
201 6
supp lementary
\u0120k ing
du c
app ed
\u0120sh ock
dim ensional
u h
\u0120f ab
\u0120cur ve
S U
m o
\u0120out comes
\u0120sche me
\u0120L ike
\u0120Austral ia
u ce
\u0120un ivers
\u0120im aging
\u0120princ ip
\u0120ass ay
\u0120econom y
\u0120rec all
\u0120M ad
\u0120t ub
def ault
\u0120un e
it ely
U ser
\u0120al ter
ce ived
r id
\u0120act s
\u0120pol ar
\u0120In s
\u00e3\u0125 \u00bc
\u0120a cknow
Gr oup
$ (
\u0120detail ed
\u0120am az
\u0120four th
ch ild
\u0120ask ing
\u0120o m
\u0120comp ounds
\u0120inte ger
E qu
\u0120P en
$ $\\
\u0120isol ated
\u0120appro ved
\u0120em ph
\u00c3\u00a7 \u00c3\u00a3o
\u0120ch ief
\u0120s orry
\u0120min ute
\u0120su p
\u0120tw ice
\u0120t on
\u0120Part y
ed ing
atur day
\u0120dep ends
ict ed
\u0120immun e
\u0120l ie
\u0120mar ried
\u00d0\u00b5 \u00d1\u0122
ammat ory
\u0120co verage
\u0120cap able
\u0120rel ates
A ut
\u0120Q ue
\u0120con c
\u0120comp ens
\u0120lead ers
\u0120Com mittee
---- -
cl aim
ell s
\u0120s alt
\u0120s ac
\u0120trans cript
\u0120sp at
F il
\u0120app ellant
\u0120t ick
E lement
\u0120elect ronic
\u0120strong ly
f irst
bre ak
\u0120T ur
\u00e5 \u0127
\u0120M a
T O
ann els
\u0120sm art
\u0120H ill
\u0120v acc
\u0120s itting
d t
\u00d0\u00b0 \u00d1\u0124
\u0120We b
it o
in er
\u0120S um
i pl
\u0120de fect
\u00ce \u00b3
F P
\u0120b atter
\u0120t error
m and
as y
---------------------------------------------------------------- ----------------------------------------------------------------
\u0120+ =
al a
\u0120poss ess
] [
c r
S L
\u0120he ll
] --
\u0120N or
\u0120G ood
\u0120dec isions
\u00c4 \u012f
\u0120employ ed
\u0120implement ation
Y our
\u0120entire ly
ok es
x e
in ations
\u0120g ra
\u0120H en
p ress
\u0120mark ed
\u0120gu ide
\u0120eval uation
Mod el
oper ative
\u0120focus ed
\u0120qu iet
\u0120Americ ans
te x
h as
\u00e4 \u00bd
id o
\u0120d \u00c3\u00a9
\u0120t ens
\u0120Associ ation
it able
\u0120list ed
\u0120se ctions
\u0120inc ident
\u0120pl ays
\u0120R iver
\u0120g od
\u0120s ides
\u0120gl uc
\u0120arg uments
\u0120excell ent
\u01204 4
it ud
\"} .
A ccording
ues day
201 7
\u0120int ensity
\u0120disc rim
se lect
\u00cf \u012e
\u0120tra ffic
\u0120br and
\u0120tre es
\u0120c ategory
\u0120st ored
C I
\u0120dut y
\u0120g ly
\u0120cor ner
C lick
\u0120vers us
\u0120expl an
\u00e3\u0123 \u013b
\u0120qu arter
k et
d oc
\u0120L eg
\u0120bro ken
\u0120percent age
\u0120d ream
un c
\u0120acc ord
\u0120defend ants
\u0120The ir
W here
\u0120conf idence
\u0120n om
\u0120ra ise
} .
\u0120j u
\u0120S N
\u0120l ose
\u0120grant ed
\u0120adv ance
\u0120be at
od ay
i ot
00 6
\u0120for g
IT H
\u0120doc uments
\u0120path way
\u00d0 \u00bf
\u0120t ables
\u0120ob ser
) =\\
\u00e1 \u0122
w ed
\u0120fre edom
g ression
b al
\u0120V er
\u0120inc ub
c ial
\u0120F orm
\u0120under stood
ail ed
\u0120main ly
\u0120Th omas
\u0120& =
\u0120wor se
\u0120F in
201 0
\u0120accur acy
\u0120$ {{\\
\u0120un known
\u0120sp ring
\u0120j our
\u0120manag er
\u0120ob lig
\u0120ph ilos
\u0120frequ ently
ree k
val id
\u0120not es
\u0120form ula
\u0120W ed
\u0120On ly
ag ger
\u0120M onday
\u0120viol ence
\u0120metab ol
\u0120plan ning
\u0120E R
\u0120min im
\u0120p as
\u0120p ages
\u0120$ {
\u0120B ook
\u00e1 \u0125
\u0120r ough
ul s
x ml
\u0120Fl or
\u0120relig ious
k ins
\u0120B rown
\u0120stat ements
\u0120 ion
\u0120f uel
\u0120even ing
\u0120e gg
\u0120p y
ad ow
\u0120prot ocol
\u0120ab use
\u0120On ce
\u0120arriv ed
\u0120W H
AA AA
\u0120Russ ian
\u0120reg ulation
\u00e5 \u00a4
est ed
\u01206 5
\u0120Willi am
\u0120second s
]-- [@
\u0120administ r
\u00c3 \u00b8
\u0120del iver
G C
\u0120proced ures
\u0120char ges
k l
ore t
\u0120t or
\u0120gu arant
m ain
\u0120p p
qu ery
\u0120inter vention
\u0120adv anced
\u0120c aught
el se
am ber
U D
\u0120appro aches
\u0120to m
g ers
\u0120comp are
\u0120enh ance
\u0120cons ult
g ithub
\u0120c art
B P
G A
\u0120G old
\u0120opp osite
\u0120appear ance
end if
\u01205 5
\u0120s ale
ven ue
\u0120crit ic
ro ke
\u0120dep ending
}} ^
\u0120Govern ment
\u0120consider ing
\u00e7 \u0136
ic ago
b id
ant a
\u0120b ool
\u0120own er
\u0120manag ed
S olve
ack s
\u0120C r
\u00c2 \u00b6
\u010a\u0109\u0109\u0109\u0109 \u0109
\u0120C I
OU T
g i
\u0120us ual
\u0120observ ations
\u0120ad vert
\u0120tele vision
\u0120qu ery
c ut
\u0120c a
\u0120se at
\u0120pull ed
\u0120mod ified
g ent
\u0120c ort
\u0120comp etition
im ately
\u00c5 \u00a1
\u0120F ield
\u0120stim ul
\u0120exp osed
201 1
\u0120a u
g t
s or
pos ed
\u0120S l
\u0120Intern et
ost er
se ct
\u0120ill ustr
\u0120sens itivity
d ir
\u0120go als
\u0120acc ident
\u0120conf lict
\u0120do ctor
\u01201 20
\u0120v ess
ut ely
\u0120c os
\u0120concer ns
\u0120b ag
u y
\u0120swe et
\u0120cons c
\u0120rec overy
\u0120st ick
\u0120t ill
\u0120acc um
\u0120An n
\u0120p od
\u0120r is
\u0120sc r
\u0120sc ores
\u0120limit ations
\u0120ind epend
ed ia
\u0120ord ers
\u0120clust er
\u0120result ed
\u0120anal og
Wh ich
\u0120st rain
m i
\u0120al le
\u0120job s
urs day
\u0120dist ingu
\u0120will ing
\u0120U N
ak ers
k o
ott en
ell ular
\u0120assum ing
ent h
C F
\u0120b le
\u0120S D
est ic
b our
ol t
\u0120e cho
\u0120r ac
\u0120g ate
\u0120W ill
OR T
or gan
) }\\
ist an
IT Y
cret ion
\u0120end ed
\u0120C T
pro cess
; \\
\u0120Lou is
\u0120experien ced
\u0120tri p
\u0120investig ate
\u0120constit ution
ir al
\u0120A S
if ferent
M D
) ^{
\u0120jo ined
ri p
\u0120numer ous
\u0120ap art
P re
\u0120\u0120\u0120\u0120\u0120\u0120\u0120\u0120\u0120\u0120\u0120\u0120\u0120\u0120\u0120\u0120\u0120\u0120\u0120\u0120\u0120\u0120\u0120\u0120\u0120\u0120\u0120\u0120\u0120\u0120\u0120\u0120\u0120\u0120\u0120\u0120\u0120\u0120\u0120\u0120\u0120\u0120\u0120\u0120\u0120\u0120\u0120\u0120\u0120\u0120\u0120\u0120\u0120\u0120\u0120\u0120\u0120\u0120\u0120\u0120\u0120\u0120\u0120\u0120\u0120\u0120\u0120\u0120\u0120\u0120\u0120\u0120\u0120\u0120\u0120\u0120\u0120\u0120\u0120\u0120\u0120\u0120\u0120\u0120\u0120\u0120\u0120\u0120\u0120\u0120\u0120\u0120\u0120\u0120\u0120\u0120\u0120\u0120\u0120\u0120\u0120\u0120\u0120\u0120\u0120\u0120\u0120\u0120\u0120\u0120\u0120\u0120\u0120\u0120\u0120\u0120\u0120\u0120\u0120\u0120\u0120\u0120\u0120\u0120\u0120\u0120\u0120\u0120 \u0120\u0120\u0120\u0120\u0120\u0120\u0120\u0120\u0120\u0120\u0120\u0120\u0120\u0120\u0120\u0120\u0120\u0120\u0120\u0120\u0120\u0120\u0120\u0120\u0120\u0120\u0120\u0120\u0120\u0120\u0120\u0120\u0120\u0120\u0120\u0120\u0120\u0120\u0120\u0120\u0120\u0120\u0120\u0120\u0120\u0120\u0120\u0120\u0120\u0120\u0120\u0120\u0120\u0120\u0120\u0120\u0120\u0120\u0120\u0120\u0120\u0120\u0120\u0120\u0120\u0120\u0120\u0120\u0120\u0120\u0120\u0120\u0120\u0120\u0120\u0120\u0120\u0120\u0120\u0120\u0120\u0120\u0120\u0120\u0120\u0120\u0120\u0120\u0120\u0120\u0120\u0120\u0120\u0120\u0120\u0120\u0120\u0120\u0120\u0120\u0120\u0120\u0120\u0120\u0120\u0120\u0120\u0120\u0120\u0120\u0120\u0120\u0120\u0120\u0120\u0120\u0120\u0120\u0120\u0120\u0120\u0120\u0120\u0120\u0120\u0120\u0120\u0120
\u0120Russ ia
\u0120h all
\u0120equ ations
\u0120d il
clus ive
\u00d8\u00a7 \u00d9\u0126
\u0120walk ed
\u0120ent itled
ry pt
\u0120candid ate
s in
^+ ^
\u0120phen omen
\u0120f uck
he ight
\u0120pie ces
im er
rape ut
\u0120rese arc
\u0120determ ination
\u0120o rient
il ty
** ]{}
\u0120ide al
\u0120re plic
and a
/ -
\u0120 00
\u0120p ush
ole an
\u0120H IV
\u0120rest aur
\u0120Off ice
be red
S ervice
\u0120n ine
\u0120f ans
od ed
\u0120qu i
the n
\u0120g rav
\u0120ar ter
\u0120W indows
\u0120stand ards
\u0120exp ansion
\u0120d uration
us cript
\u01203 00
\u0120suit able
\u0120purch ase
\u0120evalu ate
\u0120form al
M essage
G en
ater al
\u0120m ine
\u0120recogn ized
\u0120impos sible
omet ric
_ ,
\u0120d raft
on ly
\u0120pl ot
end ment
\u0120\u00d0\u00bf \u00d1\u0122
\u0120watch ing
\u0120pre val
\u0120O pen
\u00cf \u012b
\u0120b oot
\u0120he m
\u0120Sc ott
\u0120dis pl
\u0120ox id
\u0120gu ard
\u0120hum ans
R ev
\u0120F R
\u0120T R
\u0120war rant
nes day
\u0120virt ual
Ex ternal
\u0120b ug
( {
com ple
\u00d0\u00b5 \u00d1\u0124
pro duct
F e
\u0120L u
\u0120phot o
li k
\u0120concern ed
\u0120assess ed
\u0120l uck
\u0120m ission
\u0120H el
C K
\u0120ra re
\u00e2\u0122\u013f ,
\u0120f ill
w ar
\u0120{ {\\
\u0120con clude
an ning
sc ale
\u0120B re
\u0120par allel
ug in
\u0120Afric a
\u0120M ass
\u0120sett ings
\u0120bi ological
\u0120adv ice
B ox
\u0120s and
G E
\u0120\u00c2 \u00ab
i ples
and on
S ince
\u01204 7
\u012019 99
ien ces
ult ure
\"} )
\u0120bound ary
ren cy
\u0120cr is
ort ed
\u0120be coming
t w
3 00
d el
ic ious
L ine
\u0120claim ed
G e
\u0120sp oke
\u0120wid ely
\u0120keep ing
\u0120bud get
b en
\u0120E arth
ain er
\u0120R ef
\u0120demonstr ate
\u0120kn ock
IN E
\u0120jurisd iction
f ess
T e
\u0120for t
P U
\u0120accom pl
ad ian
\u0120cons ent
\u0120rem ark
E nt
\u0120con ven
aut hor
\u0120favor ite
\u01204 9
we b
\u0120s ister
\u0120tri als
am i
j u
\u0120p et
\u0120un able
\u0120dis k
\u0120S olve
ne ver
\u0120gal ax
\u0120tr ouble
z eta
\u0120re produ
\u0120ad m
\u0120r ats
\u0120signal ing
\u0120veloc ity
av en
t ra
\u0120statist ical
us iness
\u0120accept ed
\u0120T or
\u01204 1
ij ms
S R
\u0120M er
\u0120he nce
s rc
\u0120fam iliar
\u0120spec ified
\u0120dec ide
\u0120Car ol
\u0120d ress
\u00d0\u00b8 \u00d1\u0124
\u0120dat as
\u0120r oute
\u0120ne ck
\u0120there by
\u0120pop ulations
\u0120j ava
\u0120hor iz
} =\\
\u0120vari ation
\u0120dom in
**************** ****************
\u0120n odes
\u010a\u0120\u0120\u0120\u0120\u0120\u0120\u0120\u0120 \u0120\u0120
\u0120B ur
\u0120th r
\u0120l oved
\u0120end s
P ol
iv ation
um s
\u0120B ill
\u0120supp l
\u0120\u0120\u0120\u0120\u0120\u0120\u0120\u0120\u0120\u0120\u0120\u0120\u0120\u0120\u0120\u0120\u0120\u0120\u0120\u0120\u0120\u0120\u0120\u0120 \u0120
\u0120dis p
mod el
\u0120tem plate
L a
\u0120F ree
\u0120m and
\u0120Ap pe
\u0120N O
\u01204 3
\u0120pe pt
\u0120st rict
ott ed
T A
Sim plify
\u0120const raint
\u0120D ec
\u0120att ached
\u0120re vers
rodu ction
\u0120rec ording
\u0120wor ry
\u0120alcoh ol
ern el
\u0120G al
\u0120invol ving
AG E
\u0120Jes us
\u0120F ederal
)* (
M ore
\u0120c ab
l u
R ef
\u0120st ret
\u00c3\u00a9 e
\u00c5 \u0124
\u0120cont ribution
\u0120techn ical
\u0120D en
velop ment
\u0120o s
leg al
idel ines
\u0120o d
\u0120relationship s
E nd
\u0120p ed
\u0120co f
\u0120r ub
c p
ar l
ch ing
p onse
en ance
gr ade
\u0120s an
b ug
\u0120mur der
\u0120enc oun
\u0120see k
ro ad
\u0120F IG
w ing
ell er
iver se
\u0120c ogn
M r
Y PE
\u0120S ing
yt ic
\u0120man uscript
\u0120f ellow
N O
\u0120T imes
cd ots
\u00e5 \u0132
ect or
? \u00e2\u0122\u013f
M C
\u0120d ans
\u0120S erv
\u0120k ne
\u0120inter val
\u0120Rich ard
\u0120Z e
\u0120hel ps
\u0120comm itted
\u0120custom er
\u0120pers ons
\u0120W ork
\u0120} ;
\u0120ab und
ogen ic
hen tic
\u0120suggest ing
% .
\u0120for get
\u0120res ource
\u0120rad iation
\u0120Se cret
\u0120common ly
L ook
\u0120tell ing
\u0120ad ults
(\\ [
1 10
f alse
\u0120I ran
st s
\u0120g ro
\u0120R ad
\u0120col le
\u0120improve ment
\u0120H ence
\u0120Flor ida
\u0120deg rees
ap ed
S ystem
\u00d0 \u00b7
\u0120applic able
\u0120P lease
\u0120s oul
\u00c3\u00a1 s
\u0120en force
\u0120ox ygen
def ined
======== ====
\u0120f le
\u00e0 \u00b9
\u0120vill age
\u0120art icles
\u0120 \u00ec
oc hem
\u0120tr uly
char ge
w ater
}} {\\
S ource
ive red
\u01201 50
t ag
\u0120Par is
\u0120 \u00d1
\u0120lim its
\u0120contin ues
\u0120br anch
if ies
mon th
\u0120frame work
\u0120h ole
\u0120aspect s
in et
\u0120as sembly
clus ions
201 8
\u0120s ought
\u0120ph arm
th m
\u0120mi xture
\u00c2 \u00a7
\u0120R ule
othe rapy
p hen
br id
\u0120slow ly
\u0120indic ating
AS S
\u0120dep artment
\u0120M ont
\u0120L ife
\u0120S aturday
\u0120citiz ens
et ime
B U
ruct ure
\u0120turn s
\u0120Inst ead
in v
ath y
\u0120polic ies
\u0120walk ing
\u0120ad equ
\u0120pot entially
\u0120convers ation
\u0120\u0120\u0120\u0120\u0120\u0120\u0120\u0120\u0120\u0120\u0120\u0120\u0120\u0120\u0120\u0120\u0120\u0120\u0120\u0120\u0120\u0120\u0120\u0120 \u0120\u0120
\u0120court s
\u0120pay ment
t arget
\u0120part ner
\u010a\u0120\u0120\u0120\u0120\u0120\u0120\u0120\u0120 \u0120\u0120\u0120\u0120
P art
\u0120s ounds
c f
ac ent
om al
il ton
\u0120S H
az ine
\u0120cell ular
or ation
\u0120ax is
P lease
\u0120a st
% %
\u0120aff ord
us hing
\u0120It s
et her
\u0120M S
he rent
\u0120I r
i ary
\u0120h at
200 9
L S
\u0120test ified
ac i\u00c3\u00b3n
\u0120p il
\u0120con j
\u0120mass ive
F S
C all
\u0120start s
\u0120per man
op hy
\u00d0\u00be\u00d0 \u00bb
\u0120dynam ic
\u0120sign s
opt ion
st ar
\u0120F our
\u0120mar riage
el i
\u0120dim ension
Americ an
\u0120Tw itter
\u0120absol ute
\u0120challeng es
\u0120st ability
W ho
$ )
y er
n ames
\u0120th reshold
\u0120commun ities
\u0120S and
\u0120U se
\u0120mort ality
\u0120c m
m id
ars h
\u0120sec ure
el a
\u0120an s
\u0120part ial
\u0120accur ate
\u0120W here
\u0120199 0
\u0120John son
\u0120M ax
\u01204 6
\u0120h al
\u0120thought s
\u0120dep art
\u0120fl ag
or al
T wo
\u0120p rices
B ar
m g
\u0120interpret ation
\u0120d ys
l ayout
ad ed
\u0120G ive
\u0120typ ename
r ine
\u0120rel ax
\u0120ass igned
\u0120poly mer
\u0120J ose
\u0120n ative
\u0120rec ip
hel ial
\u0120ac ute
\u0120h ur
um ns
00 7
\u0120repl aced
\u0120necess arily
\u0120so le
\u0120instr ument
\u0120fundament al
ud d
\u0120f aster
\u0120link ed
\u0120di vers
B R
\u0120c ash
\u0120character ized
\u0120tiss ues
\u0120con cluded
\u0120or al
ri or
\u0120T uesday
\u0120S il
\u0120lar g
\u010d \u010a\u0109
\u0120cl imate
\u0120D O
\u0120f o
d ep
\u0120C E
f ast
u z
\u0120m RNA
\u0120me rely
ant e
\u0120St r
\u0120phot os
\u0120defin itely
\u0120de fe
\u0120flu ores
\u0120B ig
\u0120pict ures
ar ks
\u0120ann ual
\u0120fac ilit
\u0120micro sc
b uild
\u00c3 \u0124
\u0120f old
\u0120depend ent
\u0120bur den
\u0120imm ig
\u0120sy nd
\u0120Franc is
\u0120l icense
\u0120met ric
on ym
\u0120Ar ch
\u0120vis ible
he ther
\u0120pro lif
L C
\u0120f an
\u0120sc ope
\u0120v itro
E xt
\u0120P eter
V ert
\u0120F ore
\u0120sens itive
\u0120inst ructions
\u0120\" (
IN T
\u0120acc el
\\] ).
n av
\u0120clos er
\u0120small est
\u0120pro test
ent ed
\u0120dec ades
\u0120inter act
du le
\u0120P A
^ -
200 8
\u0120pl astic
\u0120thous and
ER R
N F
\u0120I T
\u0120impl ies
\u0120I V
j i
\u0120E X
P I
ap se
\u0120E r
\u0120assum ed
\u01205 6
\u0120la unch
\u0120list en
ribut es
\u0120g ent
\u0120st ack
im a
\u0120Is lam
\u0120c ra
\u0120An other
bl ing
\u0120g ap
\u0120install ed
\u0120hous ing
\u0120C ap
\u0120att end
\u0120point ed
\u0120fl av
\u0120\u0120\u0120\u0120\u0120\u0120\u0120\u0120\u0120\u0120\u0120\u0120\u0120\u0120\u0120\u0120\u0120\u0120\u0120\u0120\u0120\u0120\u0120\u0120 \u0120\u0120\u0120
ev ent
\u0120en able
ig er
: \\
\u0120Pro ject
\u0120b are
ampions hip
add ing
Qu ery
und le
ound ed
om er
\u0120L ong
\u0120prov ed
\u0120con ference
but ton
Th anks
\u0120dynam ics
\u0120princ iple
\u0120fun ds
\u0120199 8
\u0120p ix
\u0120fab ric
\u0120Ch icago
\u0120effect ively
ic ular
\u0120re act
\u0120E nd
\u01205 2
m osp
ial s
c at
\u0120sim pl
\u0120T ype
\u0120In deed
\u0120he ro
\u0120P o
\u00e0 \u00a6
\u0120un ion
\u0120s qrt
\u0120s plit
\u0120arbit r
\u0120ra il
\\[ [@
f old
\u0120lay ers
\u0120partic le
\u0120antib ody
St ream
\u0120mole cules
\u0120 \u00cf\u0122
A m
\u0120v en
en ess
\u0120wall s
AC K
n el
d ict
\u0120object ive
\u0120attack s
\u0120t ail
\u0120gu ilty
\u0120re verse
pl oad
\u0120support ing
\u0120v ot
row s
EN D
\u0120v ision
& =
\u0120m aps
B ack
\u00d0\u00b0\u00d0 \u00bb
\u0120Afric an
\u0120comm ission
\u0120occ asion
\u0120ed itor
ress ive
\u0120ch annels
form at
ar ia
\u0120co h
\u0120larg ely
\u0120fe es
\u0120 \u010a\u0120\u0120\u0120
\u0120strateg ies
\u0120predict ed
\u0120r ig
\u0120put ting
\u0120 \u00d1\u0124
\u0120she ll
\u0120pass ing
\u0120ident ification
\u0120was te
\u0120\u00e2\u0122 \u00a6
ious ly
\u0120St ar
\u0120f ashion
\u0120per m
\u0120S ol
! --
\u0120res on
ER E
\u0120C le
\u0120invest ment
\u0120to ler
\u0120fe at
ire ctor
\u0120I P
\u0120h un
d ist
\u0120real ized
\u0120\u00c2 \u00a3
\u0120b ath
p g
\u0120O N
H z
\u0120cont ribute
ok ed
\u0120inst ant
ollow ing
\u0120las er
\u0120Def endant
\u0120[ ]
\u0120mess ages
\u0120Cent ral
\u0120repl ace
line ar
\u010d \u010a\u0120\u0120\u0120\u0120\u0120\u0120\u0120\u0120\u0120\u0120\u0120
\u0120J o
ott om
\u0120ad mitted
u rop
\u0120W al
ft ware
\u0120consider ation
\u00d8 \u00aa
\u0120L i
\u0120employ ee
\u0120s ight
int on
pl ant
\u01207 2
\u0120rad i
athe red
cont in
\u0120inform ed
\u0120L og
12 0
\u0120sc hed
An other
12 8
\u0120estim ates
\u0120ep it
E V
** ,
i pping
y an
\u0120cont em
\u00d1 \u0130
\u0120pur su
l ife
In d
\u0120int ention
F IG
\u0120199 7
et ing
\u0120comp osite
\u0120mat ters
\u0120exp ensive
\u0120E U
\u0120Th ursday
\u0120App le
lect ric
\u0120arg ues
? ?
\u0120N av
ef fect
\u0120se gment
Man ager
\u0120t it
ont al
\u0120su c
\u0120grow n
\u0120S k
\u0120b low
\u0120dro pped
\u0120z one
rapeut ic
in ite
oun g
med ia
\u0120Vir gin
\u0120c ities
. </
\u0120C ount
ch ron
OR D
s en
\u0120clos ely
\u0120bas eline
\u0120Pro gram
\u0120B ack
\u0120b odies
\u0120scient ific
cle ar
\u0120we ar
St art
\u0120fl oat
\u0120cl ar
\u01205 4
\u0120N one
\u0120sim ult
ogen esis
con f
z er
\u0120o kay
He y
ul ed
\u0120f et
ne g
\u0120f ont
E very
\u0120ex ceed
\u0120legis l
se ud
ass ert
ane ously
\u0120S ociety
\u0120hon est
equ iv
\u0120w arn
\u0120\u00d0 \u00bc
\u0120dis put
ri ev
\u0120w ww
\u0120ri ver
H S
\u0120C opyright
\u0120require ment
\u0120as ym
CT ION
ul ating
\u0120spe aking
s d
\u0120bo ys
, _
per t
\u0120Just ice
\u0120respons ibility
\u0120em ission
II I
in te
br idge
the less
ack et
S ON
\u0120J ones
ribut ions
\u0120est ate
\u0120H y
r ac
\u0120hundred s
\u0120Min ister
en u
\u0120observ ation
n i
\u0120danger ous
\u00c2 \u00bd
\u0120r id
\u0120def ic
m L
\u0120coll abor
\u013b \u00aa
\u01205 1
4 00
\u0120dis appe
\u0120amount s
\u0120window s
Pro perty
\u0120be am
\u0120ch art
\u0120des ire
is ters
um er
\u0120Wed nesday
miss ions
\u0120prov ision
\u0120pract ices
\u0120s ick
\u0120she et
\u0120bl ocks
p et
\u0120expl ore
\u0120In formation
b uf
\u0120plaintiff s
\u0120pl ain
u um
\u0120not iced
font s
\u0120out er
\u0120Ch ild
\u00ce \u00ac
out s
\u0120struct ural
\u0120term inal
\u0120M ount
\u0120consum ption
D NA
\u00d0\u00bd \u00d0\u00be
\u0120autom atically
\u0120se ed
w er
\u0120M el
\u0120E D
\u0120\u00ce \u00b2
\u0120fund ing
\u0120o ch
\u0120c ards
\u0120Ar ab
\u0120over l
\u0120P H
\u0120exam ination
\u0120\u0120\u0120\u0120\u0120\u0120\u0120\u0120\u0120\u0120\u0120\u0120\u0120\u0120\u0120\u0120\u0120\u0120\u0120\u0120\u0120\u0120\u0120\u0120\u0120\u0120\u0120\u0120\u0120\u0120\u0120\u0120\u0120\u0120\u0120\u0120\u0120\u0120\u0120\u0120\u0120\u0120\u0120\u0120\u0120\u0120\u0120\u0120\u0120\u0120\u0120\u0120\u0120\u0120\u0120\u0120\u0120\u0120\u0120\u0120\u0120\u0120\u0120\u0120 \u0120\u0120\u0120\u0120\u0120\u0120\u0120\u0120\u0120\u0120\u0120\u0120\u0120\u0120\u0120\u0120\u0120\u0120\u0120\u0120\u0120\u0120\u0120\u0120\u0120\u0120\u0120\u0120\u0120\u0120\u0120\u0120
\u0120R oman
\u0120ac adem
L O
\u0120B as
\u0120l ic
\" ),
\u0120int ra
\u0120F re
\u0120M ethod
\u0120success fully
C ome
\u00c2 \u0124
b el
\u0120gluc ose
ne xt
\u0120ass istance
\u0120k ick
\u0120B et
\u0120f er
H is
e per
rehen s
\u0120dra wn
\u0120p ig
\u0120proport ion
} )\\
no on
\u0120D ev
Th ank
\u0120off ense
st d
\u0120diab etes
min imal
s up
\u0120S ocial
\u0120l ig
\u0120writ er
a fe
\u0120neg ot
\u0120off set
\u0120employ ment
\u0120viol ation
dis play
\u0120s ke
\u0120cons ists
\u0120sol ve
\u0120fin ish
B M
ap ache
\u0120St and
m ann
od ds
- (
\u0120sudden ly
\u0120st em
sc rib
\u0120just ice
\u0120v ivo
im g
\u0120p u
Al though
\u010d \u010a\u0120\u0120\u0120\u0120\u0120
ir a
s g
\u0120inn ov
r l
\u0120pre ced
\u01201 01
\u0120J im
\u0120Rev iew
on a
\u0120199 6
\u0120fig ures
\u0120arr ang
\u0120Char les
\u0120see king
\u0120aud ience
N umber
rib le
\u0120v on
\u0120experien ces
\u0120Is land
\u0120Wh o
\u0120signific ance
\u0120 _{
R ight
j son
B ecause
\u0120c ars
\u0120m argin
\u0120re form
\u0120pol l
\u0120P y
\u0120mil k
\u0120E st
\u00e2\u0122\u0136 \u00e2\u0122\u0136
\u0120ve get
\u0120sk y
\u0120sens or
G u
\u0120sp aces
f riend
\u0120l en
\u0120em bed
\u0120sen ior
in ates
t ab
\u0120P CR
B r
\u0120caus ing
* /
\u0120Gr and
\u0120sub t
\u0120p it
U s
\u0120v ast
D et
\u0120p H
\u0120l ift
\u0120some what
\u0120F ile
f it
\u0120bi as
\u0120redu cing
R em
\u0120al ign
\u00d0\u00be\u00d0 \u00bc
N ote
v in
\u0120supp lement
a o
fl u
\u0120D u
}} ,
N N
\u0120apparent ly
A Y
\u0120n erv
\u0120comp ound
\u00e3\u0123 \u00be
w rit
\u0120h o
\u0120neur ons
\u0120h urt
\u0120c u
if ts
\u0120b rown
pro te
ic ation
cont rol
\u00ce\u00bf \u00cf\u0127
\u0120recomm ended
un it
\u0120init ially
\u0120M ur
\u0120support s
av el
\u0120integr ated
V D
\u0120F ed
\u0120fam ous
u int
igh ter
\u010a\u010a \u0120\u0120\u0120\u0120\u0120\u0120\u0120\u0120\u0120\u0120\u0120\u0120\u0120\u0120\u0120\u0120\u0120\u0120\u0120\u0120\u0120\u0120\u0120\u0120\u0120\u0120\u0120\u0120\u0120\u0120\u0120\u0120
\u0120act ing
w est
ens us
z ing
er ior
' ).
\u0120dam ages
ig an
\u0120pract ical
duct or
\u0120ar my
\u0120elect rical
S pec
tem plate
\u0120cl ients
\u0120del ivered
iv ated
0000 00
isc uss
\u0120account s
\u0120v ul
\u0120m ic
\u0120at mosp
\u0120p airs
\u0120prim arily
m essage
pro p
B D
]^ .
\u0120de pos
\u0120imag ine
\u0120L and
\u0120comp act
p ng
\u00c3 \u0133
\u0120f ing
\u0120remov al
\u0120target s
ur ally
\u0120inter net
\u0120cof fee
O H
\u0120kit chen
\u0120turn ing
\u0120sub set
) |
\u0120sm ile
st atus
\u0120T em
k es
u able
ad os
od er
\u00e6 \u0138
\u0120we ather
} |
Cont ent
\u0120prom ote
erm an
\u0120loc ations
ob e
\u0120J ava
\u0120a id
\u0120des k
\u0120S pe
\u0120tell s
\u0120ren der
ro t
200 7
200 6
document class
\u0120[ [
f ind
\u0120researc hers
d at
\u0120therm al
\u0120C OM
\u0120\u00e2 \u012b
\u0120represent ative
medi ate
\u0120hot el
\u0120fight ing
Ps i
ict or
\u0120su gar
r if
G ood
h ab
\u0120sur g
al ign
\u0120princip al
v ol
$ {
ys ym
\u0120At l
n ull
\u0120fl ight
\u0120describ es
de c
}\\ ,
. -
a ft
z o
\u0120dis cretion
\u0120inhib ition
B efore
mod ule
\u0120prop ag
\u0120clos est
M M
\u0120amaz ing
\u0120g ender
at ural
\u0120C amp
ha ust
\u0120he t
\u00e6 \u012a
\u0120mechan ical
\u0120L ee
\u0120display ed
\u0120opt imal
\u0120enh anced
h igh
at i
sc r
t ed
\u0120d ust
\u0120st ages
Ch ar
\u0120Arm y
\u0120concer ning
O ther
ole cules
\u0120monitor ing
\u0120pers pective
\u0120R oad
\u0120p ump
\u0120adopt ed
\u0120polit ics
i ological
\u0120s ir
\u010a \u010c
\u01205 3
E l
ik i
\u0120B ob
\u0120feed back
\u0120I F
P oint
S O
\u0120M ath
\u0120er a
\u0120b ought
\u0120invol ves
\u01209 9
\u0120sp r
\u0120co ach
\u0120f ant
\u0120inf o
L ast
\u0120Pro te
N et
\u0120l ies
\u0120al gebra
\u0120Mart in
}{ -
l ang
h is
\u0120Y OU
** (
\u0120surround ing
ce an
\u0120rep air
ort s
\u0120organ ic
\u0120stra ins
\u0120Med ical
\u0120dr am
n ut
\u0120\u00d0\u00bd \u00d0\u00b0
\u0120S ign
\u0120had n
se arch
\u0120S O
\u0120o k
gen er
L R
\u0120E qu
\u0120man age
\u0120min imal
hy dro
\u0120ext ends
\u0120F ire
ist a
\u0120B E
\u0120j a
\\* \\*
set length
J ohn
\u0120com o
\u0120ch ick
ost on
we red
l ines
\u0120dem ocr
ell ar
\u0120antib odies
\u0120R o
\u0120L os
> (
) +
\u0120de ploy
\u0120d ual
gree k
\u0120la un
\u0120reg ister
\u0120big ger
sens ors
wide hat
\u0120se g
w a
\u0120Lem ma
\u0120re con
\u0120Willi ams
\u0120N on
cre en
\u0120prom ot
\u0120prof ession
\u0120s now
\u0120h idden
\u0120w ed
ak s
st at
\u0120unc ertain
F O
* ^
\u0120behavi our
\u0120Mc C
\u0120w rt
\u0120esc ape
sum mary
we et
\u0120se ctor
up s
\u0120f ly
in ating
cl ient
\u0120contain er
li ament
\u0120l ots
\u0120A v
\u0120carry ing
\u0120Republic an
\u00d0 \u00b1
\u0120we alth
\u0120cou pling
\u0120sub s
\u0120any way
om ething
\u0120\u00d0 \u00b7
\u0120n u
] $
\u0120pur s
\u0120Mus lim
ams math
\u0120W all
\u0120be ar
\u0120H uman
\u0120U s
\u0120hab it
\u00d0\u00be\u00d0 \u00b4
\u0120st one
\u0120su f
il a
un te
am ss
in ux
\u0120resid ents
\u0120de let
\u0120explan ation
}^{ (
\u0120hor se
P o
end ants
\u0120construct ed
w s
\u0120spat ial
ens ed
amss ymb
bs y
\u00c3\u00bc r
\u0120so il
s ome
rs fs
math rsfs
\u0120inj ection
\u0120cont ro
\u0120I ra
ff ff
by te
ams fonts
W H
Pe ople
\u0120tum ors
\u0120maint ained
\u0120absol utely
\u0120low est
\u00e6 \u013a
\u0120C ath
\u0120new sp
ams bsy
\u0120re nt
Q U
\u0120character istic
\u0120instit ution
\u0120week end
( [
\u0120v ide
\u0120co ast
\u0120O ffic
arg s
el ing
ri ers
\u0120ch apter
val ues
\u0120plan et
was ysym
up greek
\u0120y ellow
\u010a\u010a \u010a\u010a\u010a
\u0120r u
idem argin
\u0120met ast
odds idemargin
\u0120fl ux
\u0120cre ation
\u0120r ational
\u0120pick ing
\u0120s ad
ent ry
\u0120A cc
IC E
\u0120med ian
\u0120driv en
\u0120199 5
az e
But ton
\u0120deb ate
con text
ay ers
\u0120decl ared
or i
\u0120cl ock
C V
\u0120m ail
\u0120organ izations
call ed
\u0120cris is
\u0120t asks
V ersion
\u0120\" \\
em a
\u0120H ospital
00 8
\u0120am ino
\u0120g rew
\u0120disc overy
is a
ab b
A g
D B
\u0120rem ote
ut il
\u0120Sen ate
AB LE
\u0120o dd
\u0120men u
\u0120Jer sey
all ow
\u0120b an
\u0120weap ons
\u0120 ---
\u0120P ower
D id
\u0120doll ars
\u0120o l
\u0120you th
\u0120str ange
ish ment
\u0120death s
\u00e2\u0122 \u013a
\u0120determ ining
\u010a\u010a \u0120\u0120
\u0120orig inally
\u0120cult ural
Cont roller
\u0120is land
\u0120ident ical
B ase
\u0120st ead
E ng
\u0120w est
\u0120super ior
\u0120O ld
f oot
\u0120P et
\u010a\u0120\u0120\u0120\u0120\u0120\u0120\u0120\u0120\u0120\u0120\u0120\u0120\u0120\u0120\u0120\u0120 \u0120
ach ment
\u00c2 \u00ae
\u0120ev ident
S m
\u0120emerg ency
\u0120class ical
ov a
\u0120May be
or ters
al d
\u0120C L
al i
ir able
\u0120f ro
\u0120d inner
\u0120accord ance
\u0120sur ve
\u0120know ing
\u0120prom pt
ian a
\u00d1 \u0128
u v
as tern
c ers
\u0120b ars
\u0120Hen ry
\u0120different ial
\u0120real ize
\u0120T im
15 0
200 1
00 9
\u0120N E
qu are
Cl ient
ust er
om atic
\u01205 9
\u0120sh op
\u0120b ind
\u0120recogn ition
In put
P ost
\u0120dis order
\u0120b inary
\u0120w inter
\u0120Mex ico
\u01205 7
\u0120m ask
\u0120AP I
\u0120emot ional
m atch
\u0120immedi ate
\u0120\\ >
\u0120w ine
\u0120preval ence
O ff
B E
on ents
\u0120ap opt
\u0120s ports
\u0120W ood
\u00c2 \u00b5
\u0120re ct
\u0120cl oud
A F
ri um
\u0120prepar ation
\u0120implement ed
\u0120find s
\u0120S ir
\u0120laug h
\u0120prefer red
\\] ),
\u0120b io
c ss
\u0120ext end
\u0120N ever
A ction
ist ing
\u0120contribut ions
\u0120m ent
\u0120prom ise
fe ctions
\u0120div ision
S cript
. \u00e2\u0122\u013b
\u0120\u00ce \u00ba
sh ow
G l
\u0120E duc
//////// ////////
AT A
D r
\u0120in equ
r ons
\u0120epis ode
ic ate
\u0120cal c
\u0120o g
u an
D M
\u0120s ed
\u0120Sec urity
ann a
\u0120form ing
\u0120wat ched
reat ment
\u0120exc ited
\u0120categ ories
I E
\u0120E xt
\u00e0 \u00ae
\u0120enem y
\u0120after noon
\u0120respect ive
omet imes
\u0120t rend
\u0120arg ue
\u0120Ch ief
\u0120author ities
\u0120th or
Che ck
\u0120Th ree
\u0120wor st
\u0120synthe sis
\u0120H ome
n c
\u0120Je ff
\u0120separ ated
\u0120fl o
str ong
\u0120help ing
\u0120F il
\u0120t aste
\u0120hom es
\u0120reg ression
\u00e8 \u00bf
\u0120hypothes is
\u0120di ameter
\u0120che st
\u00d1 \u012a
Ph ys
\u0120v it
ter ior
\u0120rapid ly
\u0120D C
the re
iat ric
\u0120obvious ly
\u0120opportun ities
\u0120t ip
\u0120ess entially
\u0120y e
roll ed
\u0120circ le
\u0120dog s
\u01201 000
\u0120consequ ences
\u0120sp ending
\u0120sus pect
) ]
\u0120AN Y
01 0
n ger
\u0120tot ally
\u0120So ftware
b ro
\u0120J ournal
\u0120Y et
b u
R el
\u0120correct ly
l ie
le ments
\u0120fra ud
otyp es
\u0120vert ical
\u0120m ob
ever al
\u0120\\ {
P M
\u0120e ating
\u00c5 \u00be
\u0120arg ued
fra id
ex pected
\u0120gen ome
\u0120anc ient
\u0120path ways
b efore
\u0120me at
n umber
pro perty
\u01205 8
\u0120pow ers
\u0120market ing
1 000
\u0120ter rit
\u0120g ift
is er
\u0120ult imately
b les
\u0120g ast
\u0120cent re
\u00e3\u0123 \u012d
P at
s plit
\u0120B Y
D ec
D C
and roid
\u0120n m
ev en
i pt
\u0120the oret
\u0120Addition ally
\u0120oper ators
\u0120off ering
\u0120 \u00d1\u0122
\u01209 6
\u0120class ification
sc he
\u0120per ipher
\u0120exec utive
\u01204 00
\u0120C up
\u0120neighbor hood
\u012020 20
\u0120M ult
\u0120sc al
\u0120answ ers
\u0120den ote
r ition
\u0120Cont rol
\u0120p in
p ower
\u012019 80
Res ult
M B
um es
\u0120V iew
\u0120candid ates
\u0120dif fer
\u0120f inger
\u0120exam ine
\u0120c ro
s ign
\u0120fac ilities
C IT
\u0120cur ves
\u0120f urn
\u0120fe els
f d
\u0120build ings
\u0120p ip
\u0120mut ations
bl og
\u01201 10
\u0120she l
an ol
\u0120a fraid
\u00ce \u0143
200 5
\u0120surg ical
\u0120O bject
y st
\u0120temper atures
\u0120inc red
v as
\u00d8 \u00af
\u0120ass ign
} +\\
\u0120per mission
\u0120should er
\u0120e igen
och ond
\u0120J ul
\u0120\u0120\u0120\u0120\u0120\u0120\u0120\u0120\u0120\u0120\u0120\u0120\u0120\u0120\u0120\u0120\u0120\u0120\u0120\u0120\u0120\u0120\u0120\u0120 \u0120\u0120\u0120\u0120
\u010a\u0109\u0109\u0109\u0109 \u0109\u0109
\u0120H aw
\u0120ass ault
\u0124 \u00ac
\u0120Pl an
\u0120Pro v
id en
Supp lementary
} /
cent er
\u00c4 \u0127
r ants
\u0120capt ure
\u0120R T
++ )
\u0120H T
ig e
\u0120synd rome
\u0120neut ral
\u0120h ate
\u0120Th ose
\u0120princ iples
\u0120S U
\u0120you nger
S u
s i
\u0120leg s
\u00d0\u00b5\u00d0 \u00bb
ut ch
our se
y les
\u0120P an
out put
\u0120sup ra
\u0120in qu
\u0120as ide
\u0120Ira q
\u0120care fully
ins on
] );
\u0120intellig ence
\u0120trans formation
\u0120sub mitted
B u
** *
irc raft
\u0120cryst al
\u0120s oc
\u0120e ast
\u0120post ed
Fr ame
\u0120L ib
\u0120P ut
\u0120screen ing
id ents
p df
\u0120I C
\u0120W ITH
G ET
\u0120f ruit
\u0120\u00c2 \u00bb
O kay
\u0120the rapeutic
o ir
\u0120ref used
\u0120c oc
\u0120ex haust
\u0120rem ind
\u0120acqu ired
an ish
c ard
ly mp
ta x
s pe
Hand ler
\u0120rec over
r at
\u0120ed ges
\u0120res erv
is ely
\u0120upd ated
N ext
\u0120suc ceed
\u0120bi om
M on
\u0120ra w
n ed
um a
D P
\u0120Ge org
\u0120dr ag
\u0120public ation
12 5
\u0120ra in
er k
q quad
S YS
\u0120log ic
] [@
\u0120post s
\u0120ch amber
iv a
\u0120car cin
C ons
O B
ad or
\u0120surpr ise
sk i
the y
\u0120rad ical
\u01208 5
\u0120f ault
ars er
\u0120Div ision
G T
n ic
] \"
f ill
\u0120al ive
Z E
Res ults
\u0120business es
\u0120w ra
P CR
ob j
\u00e3\u0124 \u012e
ast s
\u0120init i
\u0120al k
m ethod
\u0120\\ *
\u0120kind s
il ly
\u0120commit tee
\u0120199 4
\u0120pl anned
ox y
p ed
es ter
\u0120s od
\u0120dis orders
\u0120our selves
\u0120D ie
\u0120maint enance
\u0120inc idence
\u0120f aces
\u0120some where
av ed
\u0120C all
\u0120happ ening
\u0120cr ack
\u0120help ful
\u0120count s
\u0120or th
\u0120g est
\u0120Th anks
\u0120assum ption
\u0120bro ke
\u0120batter y
O b
\u0120p apers
\u0120rot ation
av as
\u0120c ov
\u0120R ock
\u0120Virgin ia
\u0120wonder ful
P a
l ar
t wo
\u00c3\u00a9 n
\u0120g all
ament e
if er
\u0120A ma
C reate
\u0120L ake
crib ed
\u0120we aring
io x
\u0120top ic
i ro
\u0120t ube
\u0120norm ally
\u0120C S
\u0120H ot
\u0120ag greg
\u0120as c
\u0120spect ra
on ia
\u0120cont ents
\u0120veh icles
\u0120 rib
\u0120disc over
\u0120read er
tre ated
\u0120e in
\u0120serv ing
\u0120: )
\u0120pro hib
\u0120Ac adem
\u0120sur faces
\u0120An t
\u0120Che ck
\u0120N ame
\u0120m as
\u0120C apt
\u00d9 \u0129
\u0120supp ose
ic ide
200 4
N C
h ar
\u0120app lying
AS E
\u00c3\u00a1 n
\u0120con version
\u0120attempt s
ser ver
00 000
ident ial
\u0120in fer
\u0120ins ulin
\u0120& \\
\u0120n urs
\u0120 \u00d8\u00a7\u00d9\u0126
\u0120recogn ize
\u0120mor al
oid s
\u0120Christ mas
l oc
\u0120copy right
\u0120man ip
w hen
\u0120dep ression
\u0120jour ney
m ond
ren e
b ound
\u0120reg ime
OO ST
\u0120ro se
\u0120Can adian
\u0120E V
\u0120trans cription
EX T
OC K
\u00e3\u0125 \u00b3
d em
\u0120pat ent
\u0120ext ensive
\"} ),
\u0120Col or
| |
\u0120contro vers
\u0120pres um
atter ing
sc ill
\u0120inj uries
\u0120sh arp
\u0120g el
le ep
AR R
\u0120comp rehens
\u0120symb ol
\u0120O S
p rivate
xi ety
\u0120ab andon
\u0120prolif eration
rol og
\u0120Serv ices
r h
\u0120histor ical
H el
\u0120transfer red
}} ^{
\u0120L o
% ),
K e
\u0120d os
math sf
] ]
\u0120ro les
\u00e5 \u013e
St atus
\u0120mom ents
C OM
\u0120vers ions
\u0120fac ility
\u0120bo ost
h ome
em ia
\u0120beg ins
\u0120\u00d0 \u00b1
g ence
\u0120Ham ilton
\u0120App ellant
og ether
25 0
f ortunately
\u0120request ed
olog ic
\u01206 6
\u0120I g
ru ption
\u0120Secret ary
\u0120d as
ol id
\u0120 \u00cf\u0125
\u0120whe el
\u0120\u0120\u0120\u0120\u0120\u0120\u0120\u0120\u0120\u0120\u0120\u0120\u0120\u0120\u0120\u0120\u0120\u0120\u0120\u0120\u0120\u0120\u0120\u0120 \u0120\u0120\u0120\u0120\u0120
\u0120ac ids
\u0120A ri
\u0120situ ations
\u0120In terest
NA ME
\u0120Cor p
\u0120f iber
\u0120crow d
ne q
\u0120H istory
\u0120complic ated
\u0120L abor
\u0120thick ness
\u0120E ll
\u0120t rib
M at
\u0120enzym e
\u0120r ide
\u0120lead ership
\u0120te aching
\u0120s izes
ent er
\u0120integr ation
\u0120acknow led
\u0120Jew ish
\u0120n am
\u0120art ist
\u0120ext reme
\u0120cru cial
m ode
en ger
\u0120read s
ort ion
gy pt
AC E
\u0120B est
\u0120r \u00c3\u00a9
\u0120introdu ce
is or
U I
\u0120stand s
at tr
\u0120bacter ia
\u0120song s
p op
\u0120ans wered
\u0120correl ated
\u0120de grad
\u0120g ather
ant ed
ann er
\u0120eng aged
or ne
\u0120Cl ub
E ven
er ry
\u0120mark ers
\u00c2 \u0122
ess ions
\u0120perform ing
\u0120increasing ly
ic an
ib ilities
19 99
\u0120relig ion
\u0120sem icon
est ion
fl oat
\u0120gu idelines
\u0120Me an
\u0120shoot ing
\u0120produ cing
Res ponse
\u0120c av
\u0120suf fered
est ival
\u00c3\u00a4 r
el ly
\u0120report ing
\u0120conv iction
\u0120appro val
\u0120B efore
ay lor
\u0120E s
}^ \\
\u0120direct ory
\u0120inst ruct
\u0120substant ially
\u0120P ac
\u0120at h
ir us
i em
L oad
\u0120 --------------------------------
app oint
fr ast
\u0120sh aring
requ est
\u0120rel iable
on der
\u0120trig ger
\u0120own ed
ut ing
\u0120coun ty
\u0120p \u00c3\u00a5
vent ions
201 9
ST R
\u00d0\u00b0\u00d0 \u00ba
in ical
sequ ently
\u0120Brit ain
\u0120le an
\u0120bl ind
\u0120gr ade
\u0120sold iers
\u0120fair ly
E CT
\u00cf \u0129
\u0120Pol ice
ap es
\u0120G L
\u01206 3
\u0120l ens
LE CT
\u0120* )
\u0120Am ong
\u0120per mit
\u010a\u0120\u0120\u0120\u0120\u0120\u0120\u0120\u0120 \u0120\u0120\u0120\u0120\u0120\u0120
ac er
\u0120Cl inton
\u00c5 \u0141
\u0120M icrosoft
d x
\u0120sol ar
\u0120con sole
are t
co in
\u0120perfect ly
Def ault
( *
e en
\u0120subsequ ently
F OR
\u0120il legal
Over ride
\u0120s port
) ),
\u0120consc ious
ag ues
\u0120cir cul
L ayout
M ax
\u0120w et
\" ]
Con ne
\u0120ur l
\u00d0\u00be\u00d0 \u00b3
it ar
app end
A c
\u0120B oston
\u0120treat ments
\u0120adv oc
\u0120equ ally
\u0120Cor por
ou red
\u0120cogn itive
\u0120Or der
\u0120adj acent
\u00e1 \u00ba
\u0120ch ose
\u0120O per
b ul
\u0120enc oding
T HE
\u0120res c
M ar
St at
\u0120sil ver
\u0120separ ation
\u0120add ressed
ty le
UR L
\u0120purch ased
\u0120E rr
\u0120Med ic
\u0120im per
as i
ter day
\u0120$ (\\
ro ot
al ty
\u0120199 3
25 6
\u0120mov es
\u0120le ague
\u0120br idge
\u0120M en
\u0120ce re
\u0120teac her
\u0120Kore a
\u0120war ning
\u0120bo at
\u00e3\u0123 \u00a3
\u0120\u00ce \u00b5
cl ick
\" \"
\u010a\u0120\u0120\u0120\u0120\u0120\u0120\u0120\u0120\u0120\u0120\u0120\u0120\u0120\u0120\u0120\u0120 \u0120\u0120\u0120\u0120\u0120\u0120\u0120\u0120\u0120\u0120\u0120\u0120\u0120\u0120\u0120
\u0120fore st
st ack
\u01206 2
N U
\u0120bring ing
il ib
end e
\u0120199 2
\u0120ill ness
f in
ner gy
\u0120R am
\u0120De velopment
00000000 00000000
200 3
\u0120Carol ina
\u0120Ang eles
\u0120m ethyl
\u0120present ation
un icip
ap h
\u0120request s
\u0120controll er
ou ch
\u0120al pha
\u0120manif est
\u0120A ff
\u0120neg lig
\u0120hy brid
We b
\u0120all oc
att ice
\u0120V is
\u0120o scill
\u0120inst ruction
\u0120C are
\u0120magn itude
\u0120d ies
re ams
A K
\u0120li ability
\u0120n g
) }{
com mon
I ES
ur se
\u0120indust rial
\u0120s ig
au ge
\u0120mill ions
\u0120p ra
\u0120D own
\u0120$ [
-------- -
R et
\u0120fav our
\u0120aud io
\u0120te ach
\u00e2 \u0136
\u0120comp at
\u0120fe e
h ave
L D
\u0120\u00c2 \u00b5
' $
\u0120int el
O pen
\u0120J ac
\u0120sav ed
\u0120t ort
\u0120k illing
\u0120I R
\u0120in fected
\u0120review ed
se cond
IN D
L ike
AR E
{ \"
y es
un a
yn om
\u0120M i
Fil ter
\u0120any where
\u0120ord inary
\u0120different iation
\u0120pl enty
\u0120miss ed
\u0120col ors
\u0120m M
T em
\u0120arrest ed
add r
\u0120un iversity
\u0120dom estic
\u00c3 \u00b4
\u0120re in
\u0120ph r
\u0120bet a
\u0120new ly
erm ine
\u0120min ister
\u0120mi R
\u0120ent ertain
w ill
\u0120T re
\u0120comfort able
\u0120M ot
\u00e4\u00b8 \u0122
\u0120head s
p in
\u0120qu ad
~ ,
[ \"
\u0120regist ered
\u0120Jack son
\u0120C ard
\u0120L ast
\u0120gr id
\u0120surpr ised
amm ation
v als
\u0120sim ulation
\u0120val uable
n n
F ind
\u0120pass word
l as
\u0120L ook
\u0120pol ym
\u0120T op
C or
avas cript
sc ape
\u0120Do es
z i
ri ver
\u0120spect ral
\u0120win ning
\u0120fing ers
\u0120brow ser
\u0120Sp anish
_ >
\u0120electro de
\u0120b its
appro x
cent ury
le ctions
\u0120It alian
\u0120own ers
\u0120Appe als
\u0120C ast
\u0120period s
\u0120Pro fess
g al
} );
ast y
]{} ]{}
b et
\u01206 1
\u0120st orm
d on
\u0120cou pled
\u0120gr ounds
go ogle
\u0120vir al
\u0120pass ion
\u0120integr al
\u0120hous es
ut ory
\u0120bl ank
16 0
H R
\u0120J oe
\u0120R om
Al so
raz il
\u0120attempt ed
y cl
\u0120medic ine
\u0120Democr atic
ffic ients
\u0120comp osed
\u00d0 \u00b3
per ties
\u0120belie f
\u0120perman ent
\u0120$ -
\u0120col umns
\u0120l ad
ug ht
\u0120reg ional
\u01206 8
\u00e3\u0123 \u0128
\u0120consequ ence
\u0120Des pite
\u0120sim ulations
not e
\u0120ded icated
\u0120rad ius
\u0120G R
\u0120Austral ian
. ;
\u0120cont ributed
\u0120hydro gen
\u0120S M
\u00c4 \u0129
\u0120un us
\u0120gent le
\u0120\u00c3 \u00a4
\\ ^
\u0120indu ction
\u0120a ircraft
] \\
\u0120room s
\u0120adv ent
\u0120suff ering
\u0120clust ers
s ur
m ult
-------- --
\u01206 7
\u0120V ictor
\u0120labor atory
\u0120D irector
agn etic
\u0120cut ting
\u0120re actions
\u0120te eth
\u0120round ed
\u0120It aly
| -
\u0120stri ke
\u0120S P
\u0120dec ade
in ction
\u0120set up
\u0120pr oud
\u0120st roke
IG HT
\u0120ob st
> ,
uc ks
\u0120F ind
ed ef
\u0120cor on
\u0120tr uck
B O
\u0120stat istics
\u0120divers ity
0 20
ex ec
act ic
\u0120gl ad
\u0120trans action
\u0120S ar
-------- ---
\u0120represent ing
\u0120bus y
$ _
w ho
\u0120instit utions
Se lect
\u0120pro gression
\u0120mod es
\u0120mod ify
des cription
\u0120dis ag
ct ic
\u0120S C
\u0120the orem
\u0120gr ab
\u0120them e
\u0120cl othes
200 2
\u0120repl ied
\u0120obser ve
ig inal
\u0120sem i
\u0120ad verse
\u0120According ly
\u0120poss ession
anc he
rupt cy
n ership
\u0120dec ay
\u0120al ert
urn s
\u0120K ey
\u0120Mod el
\u0120ent r
\u0120\u0120\u0120\u0120\u0120\u0120\u0120\u0120\u0120\u0120\u0120\u0120\u0120\u0120\u0120\u0120\u0120\u0120\u0120\u0120\u0120\u0120\u0120\u0120 \u0120\u0120\u0120\u0120\u0120\u0120\u0120
h us
\u0120M ike
\u0120Ag ain
all s
\u0120e c
\u0120Sp ring
\u0120it er
\u00e5 \u013d
\u0120- \\
\u0120R oyal
\u0120\u00c3 \u00ae
id ad
\u0120strong er
is ons
\u0120satisf ied
\u0120V an
ch ain
\u0120Ad minist
iction ary
\u0120D onald
\u0120pay ing
iscuss ion
\u0120pass age
\u0120vol unte
\u0120t iny
ann y
\u00c4 \u013b
\u0120proceed ings
\u0120talk ed
\u0120Bl ue
aus s
\u0120p el
\u0120opp osed
\u0120prov isions
ar ation
Form at
\u0120vul ner
\u0120exper ts
\u010a\u010a \u0120\u0120\u0120\u0120
\u0120ass ist
\u0120C OU
pro t
\u0120scen ario
\u00d0\u00b5\u00d0 \u00bc
\u0120particip ate
\u0120T own
\u00d1 \u0138
end o
m ut
du ction
\u0120surpr ising
\u0120accom mod
\u0120t all
\u0120frag ment
reg ulated
\u0120co al
\u0120la id
\u00db \u012e
\u0120Jose ph
\u00c3 \u00ab
ag raph
\u0120should n
\u0120depend ence
\u0120document ation
\u0120laun ched
P age
\u00c3 \u00b5
\u0120h orm
\u0120 rom
\u0120dim ensions
\u0120prof iles
\u0120cry pt
\u0120ur ban
( _
il ation
\u0120C ivil
\u0120b omb
\u0120st ores
\u0120wel come
\u0120TH IS
H A
\u0120gr an
\u0120H D
oun der
\u0120L ab
\u0120lo an
y d
opt ions
\u0120> =
\u0120review s
end ar
\u0120cop ies
\u0120statist ically
c aps
\u0120Oh io
\u0120mat ches
\u0120sche dule
\u0120uint ptr
\u0120reg ulations
\u00c3\u00a8 re
t xt
\u0120k iss
t x
\u0120M s
\u0120con form
\u00ce \u00ae
\u0120correspond s
\u0120check ed
\u0120infl ammatory
\u0120dis charge
rop y
\u0120acc used
head er
UL T
\"} ](
\u0120ke ys
\u0120emb ry
\u0120near by
ic ul
ir ation
\u0120R ight
\u0120bre aking
\u0120s elling
it an
\u0120Att orney
\u0120regard less
\u0120o ste
\u00d0\u00be \u00d1\u0122
\u0120mit ochond
\u0120b on
\u0120Or gan
\u0120cho ices
\u0120tra ined
sp ring
\u0120W omen
\u0120mark ets
\u0120vict ory
\u0120involve ment
B B
\u0120calcul ate
. ^[@
\u0120row s
\u0120M use
\u0120cardi ac
h ad
c it
\u0120a ver
frast ructure
\u0120care ful
\u0120difficult y
\u0120p ushed
\u0120recept ors
w orld
}} }}
\u0120F ort
N R
= (
\u0120pl ur
p res
ar ters
\u0120ste el
M any
\u0120oper ate
\u0120H E
\u0120stre ets
\u0120introdu ction
\u0120Com mon
P V
eli hood
G ener
\u0120\u0120\u0120\u0120\u0120\u0120\u0120\u0120\u0120\u0120\u0120\u0120\u0120\u0120\u0120\u0120\u0120\u0120\u0120\u0120\u0120\u0120\u0120\u0120 \u0120\u0120\u0120\u0120\u0120\u0120
\u0120W ater
C G
u er
\u0120f ed
\u0120N ext
\u0120B it
min ent
\u0120w aves
\u0120Dan iel
\u0120contr ary
\u0120Tr ust
\u0120pre jud
os ome
\u0120th ro
\u0120sus cept
\u0120expl o
em ploy
ult ural
\u0120Pl ay
\u0120fail s
o is
\u0120199 1
\u00ce \u00b4
st one
\u0120good s
\u0120ap artment
\u0120Y oung
\u0120f ract
it ure
\u0120trans lation
\u0120coe fficient
\u0120semicon ductor
\u0120rob ust
\u0120b read
\u0120co oper
am ples
{ -
\u0120inv ent
\u0120L ine
\u0120Sim ilarly
or se
\u0120B ern
pos itive
\u0120spec im
O K
\u0120w al
\u0120emph as
R ed
\u0120E gypt
\u0120moment um
\u0120Col umb
\u0120t aught
\u01202 50
\u0120m eth
\u0120ad hes
\u0120great ly
~~ ~~
\u0120pres ents
\u0120draw ing
\u0120manufact uring
\u0120sust ain
\u0120opp osition
M em
\u0120fac ing
\u0120b in
ol y
\u00c4 \u00ab
\u0120calcul ation
and e
ink ing
\u0120ing red
\u0120compl iance
\u0120stim ulation
\u00c3 \u0141
\u0120m ad
\u0120repe at
\u0120constitution al
W ork
\u0120S i
ut en
yn the
\u0120Educ ation
St r
ari able
\u0120car rier
\u0120mod erate
\u0120conne ctions
M in
is ition
k m
\u0120k ernel
\u0120techn ologies
T ab
\u00ce\u00b1 \u00ce\u00b9
\u0120fl ash
\u0120G iven
\u0120restaur ant
\u0120comput ed
\u0120coe fficients
\u0120pro be
\u0120los ing
s ized
\u0120effic acy
\u0120st abil
\u0120hard ware
\u0120N Y
N OT
\u0120gu id
\u0120reve al
P i
\u0120L ight
\u0120br ings
or ial
\u0120T ext
\u0120ev il
w an
angu ages
m olecules
\u0120bas ically
\u00d0\u00b0\u00d0 \u00b2
\u0120un iverse
# :
O F
s uch
\u0120g arden
\u0120An alysis
\u0120te a
\u0120in fections
\u012019 70
\u0120t ab
\u0120st er
\u0120architect ure
\u0120Ex per
\u0120M ake
G S
put ation
\u0120arbitr ary
M ost
\u0120decl ine
pr ise
\u0120we ren
\u0120mig ration
\u0120prep are
\u0120D id
\u0120victim s
\u0120Con stitution
\u0120F ar
b as
\u0120accom pan
\u0120J on
lik ely
ian o
\u0120un w
\u0120pl ug
\u0120sub stance
\u0120Aut hor
\u00ec \u013f
\u0120rul ing
\u0120P s
olog ist
\u0120emb od
\u0120x ml
m al
por ary
\u0120serious ly
\u0120b il
Ch ild
\u0120Ch apter
aterial s
\u0120L ar
\u0120extract ed
\u0120pursu ant
\u0120symm etry
ol ly
\u0120but ter
\u0120some how
\u0120K n
\u0120ser ial
ab out
\u0120appl ies
\u0120priv ile
\u0120th y
in cluding
\u0120S a
r ig
\u0120hon or
el d
) }$
\u0120us age
s ystem
V is
\u0120Spec ial
\u0120an xiety
che m
\u0120M D
\u0120P ers
\u0120diagn ostic
\u0120cre w
V AL
s ys
\u0120sum mar
\u0120O lymp
ail able
pro ject
\u0120rem em
\u0120ch lor
\u00d0 \u00b9
\u0120cra zy
ep ing
\u0120re ferences
avel ength
\u0120h ung
\u0120Re al
\u0120aff irm
\u0120propos al
min us
\u0120D ate
au x
lim its
ol i
ro sc
\u0120calcul ations
\u0120B ow
------------ -
\u0120les ions
\u0120s ending
H C
\u0120ex cluded
ad ata
\u0120ass ets
\u0120contr ad
re ens
\u0120ant icip
\u0120pregn ancy
\u0120w estern
\u0120phot ograph
u j
ab a
re land
\u0120inter mediate
\u0120there of
\u00e3\u0123 \u0135
\u01206 9
p ie
AR D
\u0120feel ings
\u0120H arr
S ET
\u00d1\u0123 \u00d0\u00ba
\u0120complex ity
un ning
\u0120st aining
D uring
\u0120t ough
\u0120corpor ate
\u00e6 \u0139
up id
es ome
\u0120ex it
\u0120b at
\u0120ac et
\u0120impl ied
\u0120L uc
o pp
\u0120And roid
\u0120sm oking
\u0120part ners
osp it
\u0120enforce ment
\u0120tax es
u ct
\u0120supp ress
: (
\u0120head er
he mat
\u0120tr ick
\u0120sufficient ly
riv ial
cl ose
\u01207 7
\u0120weap on
\u0120simult aneously
6 00
\u0120th irty
th rough
\u0120lik ed
\u0120sam pling
b ottom
\u0120$ |
& &
for ward
01 5
\u0120As ia
\u0120C ase
\u0120meas uring
\u0120mut ant
\u0120aut hentic
\u0120ris ks
\u0120Cath olic
Ph one
ot ox
. $
\u0120h ide
\u01209 8
\u0120class ified
ar on
ath an
\u0120J r
\u0120creat es
\u00d0\u00b5\u00d0 \u00b4
\u0120M iddle
L ink
\u0120satisf y
\u0120B usiness
\u0120Y ear
\u0120Wil son
------------ --
\u0120target ed
\u01207 8
\u0120tr ou
am ond
year s
\u0120theoret ical
z ero
in als
\u0120 \u00d1\u0129
e lement
\u0120rev olution
u ity
\u0120prec isely
\u0120H and
H D
i ology
\u0120pos it
st ep
\u0120L ove
\u0120t one
\u0120any more
% ;
\u0120elect ed
\u0120regul atory
\u0120h am
\u0120C ross
In st
\u0120h ier
\u0120Ama zon
\u0120mist ake
\u0120complic ations
ogene ous
\u0120pred iction
og rap
\u0120vide os
\u0120discl osed
i est
\u0120O x
T YPE
\u00c3 \u00bd
\u0120be er
as ive
\u0120activ ated
ax is
\u0120N A
\u0120ret ail
\u0120requ iring
I X
\u0120E th
\u0120part ially
Ab out
ak a
form ed
\u0120vari ations
\u0120st ir
\u0120mut ation
\u0120announ ce
U C
g raph
\u0120re ar
g le
\u0120gr ass
\u0120h ook
\u0120p seud
\u0120S outhern
x c
Cont rol
\u0120Te am
\u0120a er
\u0120re fe
I LL
un ct
\u0120se ar
\u0120Col l
\u0120apopt osis
as ant
onym ous
\u0120adequ ate
ob s
\u0120F A
n m
\u0120m apping
\u0120b ands
C urrent
', '
\u0120load ed
\u0120 \u00eb
math scr
\u0120class ic
\u0120U RL
S l
serv ice
enn y
\u0120L ie
\u0120M E
\u0120le af
\u0120corre ction
msg id
\u0120deal ing
\u0120s oci
\u0120P T
\u00e1 \u00bd
r ams
\u0120dom ains
\u00d7 \u0137
\u0120For ce
um ps
s ch
\u0120consum er
f ol
\\ \"
n ie
M ENT
\u0120B ased
\u0120exec ution
25 5
// /
W rite
aren ess
w r
ans as
\u0120E p
B uffer
yl van
\u0120where in
\u0120f \u00c3\u00b6r
\u0120S her
\u0120t ract
IM E
\u0120 icon
\u0120ag ed
msg str
\u0120light s
10 5
\u0120administr ative
\u0120P ak
\u0120n arr
\u0120diag ram
\u0120re new
\u0120pol ynom
g age
W E
\u0120H a
\u0120consider able
et he
\u0120\\ -
\u0120read ers
\u0120to ken
\u0120dist ributions
\u0120quant ity
\u0120G ra
\u00e5 \u00b0
\u00e5 \u0143
\u0120broad cast
oc ard
\u01207 4
\u0120drink ing
\u0120mach ines
\u0120inhib itor
\u00e0 \u00b0
itro gen
12 3
\u0120Sh ow
T ex
\u0120con ce
\u0120with draw
\u0120col our
)) )
W R
\u0120m ater
\u0120l ady
\u0120hard ly
\u01209 7
8 00
\u0120infl ammation
C ar
\u0120uns igned
\u0120ro of
t own
\u0120Net work
\u0120elev ated
\u0120P age
\u0120numer ical
\u0120mark er
typ es
\u0120do ct
p ackage
\u0120t ur
\u0120D R
\u0120tr ace
\u0120 ..
\u0120bul k
\u00d8\u00a7 \u00d8
M ode
\u00e8 \u00a1
\u0120program ming
\u0120M aster
act s
\u0120fif th
\u0120mag ic
me an
a ire
\u0120pul se
\u0120re ly
\u0120ent ity
\u0120FR OM
\u0120H R
\u0120incub ated
p ool
ol ars
\u0120not ion
\u0120N ov
\u0120R ay
ific ate
\u0120z u
\u0120Am endment
\u0120exhib it
\u0120sh it
\u00d7 \u013b
\u0120bacter ial
re ement
\u00d0\u00b8 \u00d1\u0131
\u0120I M
ear ing
\u0120dire ctions
let on
\u0120nat urally
n ament
port ed
\u0120t il
re ason
\u0120fem ales
V er
\u0120inter ior
\u0120d ialog
ac ity
On ce
H er
op rote
\u0120metab olic
\u0120pay ments
\u0120beaut y
\u0120sh ares
\u0120Francis co
\u0120K im
ir atory
11 1
ass oci
\u0120ref ers
\u0120k m
C ell
ac cess
\u0120re com
\u0120nam ely
\u0120l ying
\u0120cre am
\u00c2 \u0125
an im
} -\\
\u0120hyper t
\u0120birth s
\u0120c yl
\u0120Techn ology
\u0120w ound
\u00e3\u0124 \u0124
l ers
ar se
us al
uns igned
}( {\\
\u0120m arg
\u0120whe never
\u0120inv al
Do es
\u0120mult ip
\u0120Eng ine
\u0120m ales
\u0120prec ise
\u0120on going
point s
\u0120fl ood
mon ary
\u0120con sec
\u0120fall ing
\u0120constraint s
\u0120B OOST
\u0120indu ce
\u0120$\\ {
P ER
clud es
d est
\u0120In it
\u0120e en
\u0120cyt ok
p erson
=\" #
M ed
| ^
\u0120int ake
\u0120g ang
\u0120gen u
\u0120Democr ats
\u0120tro ops
\u0120atmosp here
\u0120O K
\u0120res erved
In it
\u0120sub stit
L ength
\u0120sw im
\u0120under t
ocy te
\u0120W ay
all oc
ps on
\u0120sil ence
\u0120en erg
\u0120t un
\u0120Rep ort
ple t
t ml
\u0120legis lation
\u0120peripher al
P AR
\u0120art ists
ch arg
\u0120capt ured
unt ime
\u0120G ame
D ep
\u0120F red
), \\
D own
\u0120pl ates
\u0120c able
\u0120phosph ory
\u0120sett lement
S ch
U RE
\u0120sk ill
p ression
\u0120is t
\u0120g iant
\u0120dri vers
\u0120wh is
\u0120G ar
ino is
\u0120B razil
\u0120compar able
\u0120En ter
\u0120inst ances
\u0120tom orrow
\u0120 riv
\u0120l iber
\u0120O l
\u0120mount ed
} .$$
\u0120frequ ent
\u0120mar ks
ab eth
\u0120Im age
\u0120part ition
\u0120return ing
\u0120hand ling
\u0120d ict
\u0120v eter
ochem ical
elle e
\u0120P S
\u0120co inc
ack ing
\u0120intel lect
\u0120l ists
\u0120datas et
\u0120ampl itude
\u00e2 \u0138
\u0120univers al
am ination
\u0120occ as
\u0120el ig
\u0120y eah
\u0120stru ck
\u0120adjust ed
ont o
\u00c2\u0142\u00c2\u0142\u00c2\u0142\u00c2\u0142 \u00c2\u0142\u00c2\u0142\u00c2\u0142\u00c2\u0142
\u0120b anks
\u0120St an
\u01207 6
b ell
\u0120k om
\u0120arr anged
\u0120h ang
F D
\u0120un con
\u0120H on
\u0120at oms
\u0120disc ipl
\u0120re nal
\u0120flu ct
\u0120re ward
\u0120reach ing
ilib rium
\u0120communic ations
........ ........
\u0120rel i
resp onse
\u0120ob j
\u0120M ic
W S
ylvan ia
\u0120organ ized
dev ice
\u0120rout ine
\u0120load ing
v s
Col lect
\u0120controll ing
\u0120independ ently
h av
\u0120comp aring
\u0120f asc
. ]
i ations
\u0120re jected
off set
\u0120Val ley
AT H
\u0120co vers
\u0120scient ists
Se cond
\\ }$
\u0120comp rom
\u0120teac hers
\u0120ben ch
\u0120F ather
\u0120div ide
\u0120in her
\u0120o u
\u0120st uck
\u00d0\u00b8 \u00d0\u00bd
\u00e6 \u0137
\u0120compens ation
\u0120exc it
ust ration
i ol
\u0120 \u00c2\u0142\u00c2\u0142
\u0120S ov
\u0120ab normal
% ).
F inally
\u0120leg it
\u0120magn et
\u0120respond ed
b ool
O ptions
\u00ce \u00b8
fil ter
\u0120l attice
\u0120F und
st ra
ual ity
\u0120\u00e2\u0122 \u00a2
h ard
\u0120cover ing
o i
B uild
\u0120st ations
T D
R ow
in ition
\u0120a ux
G O
met ric
\u0120creat ive
O per
\u0120s ulf
ion ed
qu es
ve ctor
M ult
\u0120r ising
\u01208 8
empt y
w art
in fl
\u0120Ch ris
\u0120do ors
\u0120ag encies
\u0120j oy
\u0120I reland
\u0120d ance
\u0120== =
ic ht
d ays
\u00e9 \u0122
\u0120sc an
con duct
\u0120me re
gress ive
Out put
p ad
b uffer
\u0120F ox
conne ct
\u0120yield s
01 7
ir y
\u0120serv es
Par am
\u0120P E
\u0120Muse um
ov ascular
\u0120dis appoint
\u0120o mitted
op ath
\u0120l ob
\u0120match ing
\u00e3\u0124 \u012b
H L
\u0120vari ance
\u0120Sw ed
\u00e5 \u012c
\u0120st om
\u0120\\ |
b led
c ule
\u0120cult ures
\u0120< =
)* (-
\u0120E lect
\u0120decre asing
\u0120s outhern
}\\ \\
\u0120Con ne
\u0120T oday
\u0120N umber
\u0120absor ption
\u0120val ve
em ic
\u0120by tes
\u0120inj ured
M ark
\u0120R od
{ (
\u0120yes terday
\u0120S ix
\u0120priv acy
\u0120destroy ed
P G
el ve
\u0120c raft
\u0120academ ic
\u0120tra v
\u0120St art
\u0120mat hemat
\u0120coh ort
r in
\u0120anal yt
\u0120thor ough
\u0120discrim ination
\u0120metabol ism
\u0120n erve
\u01201 30
\u0120D M
\u0120B a
\u01207 3
\u0120comprehens ive
\u0120su ffer
\u0120I l
\u0120pros pect
ors es
\u0120pr on
h ire
pl us
\u0120restrict ed
f ix
\u0120sing ular
\u0120V ersion
\u0120t ank
\u0120de com
\u01207 1
\u0120B uild
\u0120att ribute
az z
\u0120c ited
\u01209 4
os ity
conom ic
}_ \\
\u0120sh r
\u0120\u00ce \u00b4
p u
iz z
\u0120law yer
\u0120And rew
\u0120di verse
\u0120sign ature
List ener
\u0120explicit ly
\u0120th inks
\u0120Sp ace
\u0120galax ies
1 12
f i
\u0120( \u00e2\u0122\u013e
). $$
\u0120D ar
\u0120mount ain
\u01208 4
ir k
\u0120challeng ing
Res ource
\u0120m ild
is p
\u0120beh alf
\u0120Sc ot
\u0120impro ving
pl an
\u01201 25
Ar g
\u0120che ap
\u0120expl os
B lock
m ake
\u0120L ew
ON E
D ev
\u0120P oint
\u0120pro gn
we ek
\u0120chick en
\u0120} \\
ct x
em an
OR E
\u0120l unch
i ar
m ay
\u0120ins u
\u012019 89
\u0120appoint ed
\u0120vot ers
AR Y
\u0120decl are
\u0120ed ition
& #
on om
\u0120employ er
v y
h ol
\u0120v ascular
\u0120t ape
d ig
May be
he tic
e le
ir ms
\u0120vess el
ur d
medi ated
\u0120strugg le
up date
\u0120few er
Des cription
\u0120n orthern
ns ylvania
\u0120P L
)$ $
\u00c2 \u00a5
\u0120S at
op es
\u0120approxim ation
ro se
\u0120se vent
\u0120clos ing
\u0120Car l
\u0120E nt
\u00c2 \u00bc
T oken
oles ter
`` `
at re
\u0120Con f
\u0120aim ed
\u0120g auge
ang ers
ord an
b its
\u0120has n
ene ath
S ign
\u0120f ool
\u0120pharm ac
a ver
\u0120l oud
\u0120incorpor ated
\u0120Ch ampionship
\u0120nerv ous
olog ically
\u0120c ust
\u0120app s
E m
st ic
\u0120w avelength
\u0120f ired
, $$
\u0120B on
ubl ished
ist ical
Ad dition
ific ial
\u0120l ips
\u0120plur ality
re le
N P
\u0120mod ification
10 4
\u0120Th ank
\u0120A ward
Up date
f iles
\u0120Per haps
U se
\u0120diagn osed
13 0
C ase
\u0120N C
\u0120here in
\u0120in clusion
\u0120intr ac
AP I
\u0120consist ing
\u0120dev iation
\u0120W alk
\u00d0\u00be \u00d0\u00bd
In stance
k ind
\u0120orient ation
\u0120bir ds
\u010a \u0120\u0120\u0120\u0120\u0120\u0120\u0120\u0120\u0120\u0120\u0120\u0120\u0120\u0120\u0120\u0120\u0120\u0120\u0120\u0120\u0120\u0120\u0120\u0120\u0120\u0120\u0120\u0120\u0120\u0120\u0120\u0120\u0120\u0120\u0120\u0120\u0120\u0120\u0120\u0120\u0120\u0120\u0120\u0120\u0120\u0120\u0120\u0120\u0120\u0120\u0120\u0120\u0120\u0120\u0120\u0120\u0120\u0120\u0120\u0120\u0120\u0120\u0120\u0120
\u0120B u
\u0120Med ia
s ite
\u0120tele phone
\u01209 2
\u0120r um
\u0120Sp ain
\u0120upd ates
\u0120Com put
\u0120P ass
it \u00c3\u00a9
ra ined
\u0120E mp
\u01207 9
\u0120T aylor
\u0120c um
est inal
\u0120Res ults
\u0120bu ying
\u0120bas ket
ad i
\u0120sm oke
\u0120ple asure
h s
\u0120trans plant
\u0120tempor ary
\u0120p itch
\u01208 9
\u0120K en
\u0120ch ip
et ies
\u0120Com m
\u0120Corpor ation
\u0120impos ed
s ql
ict ions
\u0120list ening
\u012019 83
wh ite
\u0120B ush
\u0120ver tex
or ous
ask a
ov ing
\u0120heav ily
\u0120alleg ations
\u0120G reek
\u0120inn oc
material s
------------ ---
ne um
ens or
\u0120Mich igan
\u0120stat utory
c b
ur i
al and
\u0120in frastructure
\u0120p ocket
\u0120mov ies
\u0120res olve
\u0120add s
\u0120B R
01 9
} [
\u0120W at
\u0120Dav is
\u0120s el
\u0120produ ces
\u0120educ ational
\u0120te en
\u0120algorith ms
\u01201 11
10 2
N one
\u0120 ],
\u0120mag azine
\u0120st upid
p ush
\u0120ad mission
f ire
\u01201 15
tt p
aw s
\u0120enjoy ed
ist ence
\u0120fluores cence
\u0120consum ers
\u0120ag ric
st able
\u0120de lete
ne cess
\u0120Man agement
\u0120redu ces
\u0120N J
\u0120** (
\u0120else where
\u0120keep s
\u0120domin ant
\u0120advant ages
\u0120A ge
\u0120br anc
D I
\u0120gener ating
\u0120H ard
\u0120\u00c2 \u00b6
j pg
\u0120engine ering
\u0120inequ ality
\u0120sett led
\u0120fac ed
\u0120sm iled
\u0120Det ermine
h older
\u0120Ab out
\u0120eng age
\u00d0\u00bb \u00d0\u00b8
. /
< \\
u its
\u0120C hem
\u0120frequ encies
ij er
\u0120h oles
\u0120de but
T op
! '
F urther
\u0120ve ctors
ad el
\u0120ref lected
\u0120r ural
\u0120bar rier
18 0
\u0120> >
\u0120L ibrary
RNA s
\u0120over come
, {\\
\u0120In vest
ad vant
\u0120se es
pro v
\u0120Des ign
on ed
\u0120exec uted
\u0120des irable
\u00d0\u00b0\u00d0 \u00bc
\u0120en abled
\u0120track s
\u0120Mus ic
ow a
\u0120G all
aw a
ile y
\u0120Academ y
\u0120M iller
\u0120met a
\u0120found ed
id al
\u01208 7
ann ot
\u0120expl ains
sh ould
ogen ous
s v
\u0120sp okes
et ch
e h
\u0120F ood
\u0120M ajor
\u0120y ards
itud es
\u0120apprec iate
re ll
\u0120 \u00c4
\u0120move ments
\u01208 3
\u0120contin uing
am ps
\u0120N orthern
\u0120( $\\
}^{ -
\u0120R og
S tyle
\u0120U ser
w orth
\u0120con front
\u0120ch a
\u0120Des cription
\u0120rece iver
\u0120friend ly
\u0120ne ural
u id
\u01209 3
ib ration
\u00e2\u0136 \u0122
\u010d \u010a\u0109\u0109
\u0120per mitted
\u0120arrang ement
\u0120print ed
\u0120t ack
\u0120prov en
\u0120ro ots
\u00c2 \u00b8
\u0120rough ly
= -
\u0120h ospit
' ),
iment al
\u0120mir ror
\u00e3\u0124 \u012c
\u0120Th ough
\u010a\u010a \u0120\u0120\u0120\u0120\u0120\u0120\u0120\u0120\u0120\u0120\u0120\u0120\u0120\u0120\u0120
\u0120ad mit
IV E
B o
\u0120g ut
\u0120n ose
\u0120Pal est
\u0120dec or
iss ions
\u0120me al
\u0120constant ly
ARR ANT
\u01208 2
\u0120G O
s n
\u0120imp air
\u0120King dom
\u0120inv asion
oun ced
01 4
L abel
199 8
\u0120particip ation
\u0120sc ales
p ref
g el
A ccess
N ET
ros is
\u0120el der
\u0120M ain
\u0120Pro position
. ),
\u0120inter vals
Pro v
pro d
\u0120dismiss ed
\u0120res olved
\u012019 88
\u00d1 \u012b
\u0120l anguages
\u0120convert ed
ij n
\u0120conserv ative
end ix
iz abeth
\u0120fall s
\u0120nod ded
se x
\u00c3\u00a9 t
\u0120hop ing
\u0120sched uled
\u0120ter rible
\u0120prof it
vious ly
St ud
\u0120inhib itors
\u0120belie ves
U ST
\u0120f older
EN SE
cl ip
\u0120R h
A p
ri ents
Id ent
\u0120pept ide
\u0120bound ed
\u0120un likely
\u0120determ in
\u0120Ill inois
f ull
\u0120newsp aper
im p
\u0120\\ ;
y g
sh ift
\u0120t unn
\u0120Pac ific
k it
\u0120unus ual
\u0120c ache
\u0120sh out
\u0120den omin
\u0120str ings
d agger
\u0120sil ent
\u0120phenomen on
\u0120Jew s
On ly
\u0120m ais
\u0120but t
\u0120W ARRANT
\u0120D ig
ibr aries
\u0120person nel
\u0120v oc
\u0120pil ot
\u0120L ittle
em ed
\u0120view ed
\u0120do ctors
in ternal
\u0120L ow
\u0120C ur
\u0120vis ited
\u0120du plic
\u0120app ell
\u01209 1
B T
\u0120ret ire
Un ited
es ides
b ial
Th read
\u0120B ell
\u0120 ell
N on
\u0120horiz ontal
F unction
\u0120man ual
\u0120Ir ish
\u0120writ ers
\u0120sc rew
app y
\u0120be ach
\u01201 14
! \u00e2\u0122\u013f
\u0120conf lic
\u0120C urrent
\u0120R a
\u0120inter rupt
\u0120pres erv
\u0120ton ight
\u0120dis h
ari ate
\u0120ant igen
\u0120att ended
opl us
\u01208 6
\u0120Sc ient
\u0120compr ising
\u0120deep ly
v m
\u0120par as
\u0120+ /-
\u0120t ren
w hel
\u0120res ist
\u0120egg s
ov es
\u0120opin ions
\u0120coord inates
\u0120Que en
\u0120L ocal
\u00cf \u012f
col umn
\u0120fun c
\u01201 12
u ated
end a
\u0120bow l
\u0120Pen nsylvania
\u0120conven ient
\u0120dist urb
\u0120vari ants
\u0120C ell
\u0120E L
\u0120Har ry
olog ists
A CT
\u0120c odes
\u00d0\u00bd \u00d1\u012d
\u0120every body
\u0120uncertain ty
\u0120As ian
\u0120colle agues
\u0120profess or
\u0120on set
\u0120fore ver
\u0120loss es
et r
AT ED
\u0120oper ated
\u0120avail ability
ac on
* ]{},
\u0120manufacture r
\u0120rec ru
\u0120f el
et ics
under line
ex ample
\u0120T ake
\u0120E nergy
an z
' \\
\u0120calc ium
\u0120t err
\u0120prior ity
c us
ish op
\u0120In te
\u0120every where
\u00c2 \u00b4
\u0120Cons ider
\u01208 1
const ruction
\u0120App lication
\u0120dem ands
\u0120HT ML
\u0120ind irect
\u0120pow der
P ort
\u0120inter ference
opl asm
\u0120sc ored
\u0120house hold
\u0120tra il
\u0120c ock
Pro ject
\u0120part nership
\u0120person ally
ace ut
ul ator
\u0120S QL
\u0120improve ments
\u0120sp ons
\u00c2 \u00ba
\u0120accompan ied
\u0120stri p
\u0120St ill
g reen
ST AT
\u0120Stud ies
ER V
\u0120di ver
pe red
com mun
p ot
\u0120sc attering
\u0120prov ider
m aster
01 6
\u0120regular ly
\u0120j et
\u0120c ig
ur able
\u0120health care
he rence
\u0120kin ase
\u0120R est
\u0120philos ophy
A cc
ry ing
\u0120g ay
\u0120CE O
Po inter
ic ing
\u0120ent ering
D eb
\u0120bl ess
\u0120t u
\u00c4 \u013d
\u0120Y eah
\u0120Val ue
\u0120fail ing
\u0120process ed
\u0120capt ion
\u0120wire less
\u0120quant itative
men u
d am
\u0120T urn
F actory
\u0120b att
os omes
Un der
l ot
\u0120Pat ent
\u0120fun ny
Att ribute
\u0120comb at
\u0120\u00c2 \u00b0
\u0120Err or
\u0120B ase
\u0120de ar
\u0120world wide
ijer ph
\u0120lip id
text bf
\u0120ra rely
\u0120( %)
^ ,
st o
\u0120 \u00d1\u0125
\u0120compet ing
\u0120w ake
M c
h m
\u0120a z
\u0120u pt
\u0120M ir
H ave
MA X
ant o
\u0120f usion
\u0120Ar ray
\u0120m amm
\u0120re venue
\u0120con ve
\u0120grad ient
= {
ult y
\u0120r ice
\u0120ang ry
\u0120stay ed
\u0120stead y
\u0120Tr ue
\u0120separ ately
\u0120tim ing
A rt
\u0120insp ired
ire ction
ev in
\u00e8 \u00a6
e ff
op ed
\u0120stud io
V M
\u01201 13
d oor
f amily
S um
\u0120design s
\u0120petition er
\u0120sh ips
\u0120div isor
\u0120the ories
back ground
\u0120con clusions
og l
je ctions
c ies
\u0120Ste ve
\u0120t rem
\u0120port ions
all ing
\u0120ign ore
) _
ik a
\u0120H o
\u00e6 \u012b
v ance
\u0120f ur
d l
Th ree
\u0120S on
\u0120di pl
\u0120b eneath
\u0120T ri
\u0120he pat
E ach
14 5
\u0120ut ility
O G
\u0120Gl obal
\u0120syn chron
\u0120mass es
\u0120ver dict
ill ance
\u0120E vent
\u0120commit ment
\u0120expand ed
m aking
\u0120maint aining
w ent
\u0120affect s
\u0120some body
\u0120A F
\u0120ex clusive
\u0120um a
\u0120sw it
\u01201 40
\u0120con crete
sh ot
subset eq
OU R
bl ue
\u0120M id
\u0120path s
\u010a\u010a \u0109\u0109
\u0120E astern
\u0120t urb
st ore
\u0120t ired
\u00e4 \u00b9
ou ter
\u0120le ct
\u0120cal m
Le ft
\u0120s ys
\u0120S aint
\u0120rat ios
\u0120R ub
\u0120ag es
*~ *
\u0120cons pir
\u0120surv ive
\u0120later al
\u0120Republic ans
\u0120an ch
br al
U sing
is en
######## ########
\u0120aw areness
e re
\u0120ox ide
\u00e8 \u00af
\u0120k il
\u0120rec ur
\u0120comp ute
\u0120sh ook
\\ >
\u0120resp iratory
\u0120d ial
in th
\u0120max im
y o
\u0120H ig
\u0120pro minent
\u0120encour age
\u00e3\u0124 \u00b9
Config uration
\u00ce\u00b5 \u00ce\u00b9
\u0120mod ules
\u00d9 \u0123
IL ITY
\u0120sod ium
\u0120U k
\u0120ath let
h u
\u0120Capt ain
us r
text rm
\u0120abund ance
\u0120remov ing
omorph ism
ant i
ry st
\u0120wor ried
D D
\u0120M R
\u0120sub mit
L ocation
\u0120acqu isition
ol ving
pt on
\u0120mal ign
\u0120tempor al
\u0120Se a
\u0120met all
ak i
b ow
\u0120A C
\u0120award ed
\u0120g uns
n an
\u0120pre lim
\u0120cy cles
12 7
\u0120trad ing
\u0120child hood
\u0120em br
ch anged
\u0120par ad
be ing
\u0120F L
\u00d0 \u00b6
om eter
qu ot
\u0120R os
bl ack
\u0120co at
\u0120B al
\u0120degrad ation
\u0120vary ing
\u0120G NU
h our
IN S
\u0120administ ered
\u0120prov iders
\u0120inf inite
equ al
\u0120Th rough
}} $.
th read
reg ulation
\u0120was hed
ol ine
` ,
\u0120F ollowing
\u0120gr ay
\u0120immun ity
\u0120C ook
\u0120Pol icy
\u0120S n
az a
comple te
\u0120discuss ions
viron ments
er as
\u0120Cam bridge
\u0120Bro ok
\u0120e ase
RE G
\u0120m unicip
\u0120print ing
\u012019 60
\u00d0\u00b0\u00d0 \u00b7
\u0120bott le
\u0120T our
\u0120ext raction
\u0120pass es
\u0120C as
\u00e0\u00a4 \u00be
\u0120ab stract
ins ic
]{ .
\u00e5 \u00be
\u0120d ens
\u00d0\u00be\u00d0 \u00b9
\u0120v ice
\u0120re ject
\u0120Ph ot
}} }$
\u00e2\u0122\u0136 \"
\u0120writ es
\u0120sim ilarly
\u0120cl im
\u0120de leg
\u0120S us
E v
\u0120Res p
\u0120W T
\u0120subject ed
h ot
Ser ver
\u0120G i
add ress
l ayer
\u0120disput e
\u0120ent ries
\u0120L es
P tr
\u0120s li
\u0120E ffect
\u0120{ {
\u012019 87
\u01201 19
\u01201 60
\u0120accum ulation
Bu ilder
ph y
\u00c5 \u013d
\u0120S A
b ot
ag an
ad ium
\u0120c ord
\u0120att itude
\u0120C ustom
\u0120H un
ocol ate
olester ol
\u0120W is
\u0120ha z
\u0120C ru
\u0120reason ably
\u00e2\u0122\u0135 \u00e2\u0122\u0135
\u0120A B
\u0120phys ics
01 8
\u0120al tered
\u0120f lying
\u0120sur ge
\u0120 ),
, $
auss ian
\u0120n \u00c3\u00a3o
\u0120V iet
\u0120ad en
ag ram
\u0120med i
S QL
f ive
er ated
\u0120D a
\u0120h orses
\u0120decre ases
on ical
\u0120autom atic
\u0120inval id
\u0120F amily
p ay
w all
\u0120system atic
par se
} ]
\u0120compet itive
and ed
\u0120ge ometry
\u0120tal ks
\u0120advert ising
\u0120S everal
\u0120express ions
H ello
\u0120compr ises
Com mand
\u0120dest ination
\u0120Georg ia
\u0120pat ch
\u0120L td
in ch
\u0120ref uge
T V
\u0120park ing
\u0120g ained
}} )
\u00e6\u013a \u00af
\u0120analy ze
\u0120protect ive
\u0120fil ing
h ang
f oo
d ra
\u0120flex ible
word s
\u0120\\ \"
1 19
\u00cf \u0128
T yp
Comp onent
\u0120u pload
\u0120c ow
\u0120A ction
\u0120\" $
\u0120Ze aland
\u0120vac uum
\u0120abs ent
\u0120S anta
\u0120cent ers
\u0120Pr ime
\u0120distingu ish
\u0120 ul
\u012010 4
d p
b es
\u0120food s
act ivity
\u00c2 \u00be
\u0120cr imes
\u0120Ex ec
\u0120asym pt
\u012019 86
\u0120gu est
\u0120wed ding
\u0120B oy
\u0120Stand ard
\u0120b oss
\u0120G a
\u0120sever ity
\u0120cont ends
\u0120pack ages
\u0120hard er
\u0120L ead
\u0120P ot
\u0120found ation
\u0120s essions
h h
\u0120b ull
b ecause
g rav
]{ }\\
\u0120U V
P ass
\u0120proceed ing
rem ove
\u0120suppl ied
\u0120qual ified
\u0120{ }
\u0120Ste phen
T arget
\u0120Cent re
\u0120witness es
\u0120loc ally
10 3
\u0120che ese
\u0120Gu ard
W idth
\u0120cut s
\u0120lik elihood
or able
X iv
zon a
HE CK
\u0120an not
The ta
\u0120sequ encing
su per
\u0120in cl
\u0120\u00c3 \u00a8
b ing
rop ic
\u0120b unch
}} }\\
\u0120t ips
)) /(
\u0120Sov iet
\u0120sh adow
\u0120( '
\u012010 2
s it
\u0120sc hem
\u0120bes ide
\u0120fl ags
uck y
\u0120search ing
ac et
W indow
\u0120be aring
\u0120accept able
\u0120influ enced
\u0120for um
\u012019 85
ii i
\u0120prev ention
f usion
\u0120inter ventions
\u0120guarant ee
ut ter
\u0120sh orter
\u00e2 \u013b\u00aa
\u0120po inter
\u0120he ating
\u0120D un
\u0120exp enses
ut y
10 7
\u0120meet ings
\u0120L A
=\" ../../
\u0120vol unt
\u0120ST AT
\u0120pert urb
11 7
\u0120v ital
d rop
\u0120Ser ies
\u0120arter y
Add ress
d ouble
\u0120H ave
o vers
\u0120complet ion
RE E
h op
\u0120by te
\u0120Commun ity
\u0120Th ird
\u0120b id
\u0120d ad
\u0120T E
\u0120K enn
re q
\u0120\"\" \"
\u0120rep ly
\u0120question na
\u0120Def endants
\u0120che cks
\u0120mus ical
\u0120Never theless
\u0120regard ed
\u0120develop ers
a ired
T P
\u0120target ing
ament o
\u0120psych ological
\u0120coun cil
\u0120T otal
\u0120kne e
\u00e0 \u00aa
\u0120S ource
back s
\u00c3\u00a4 t
\u00e1 \u00bc
\u0120M other
\u0120fl our
\u0120pix el
\u0120Int roduction
\u0120ass ays
\u0120P op
\u0120sat ell
\u0120C M
ot ide
\u0120d ates
he ast
\u0120E ric
\u0120L im
\u0120P ay
are r
\u0120ins ight
red it
as er
\u0120limit ation
t im
\u0120ste pped
\u0120H or
G P
\u0120in k
F E
\u0120des per
v ard
\u0120R ome
form ance
\u0120exc iting
b p
\u0120D am
ke ys
f ish
\u0120dis advant
\u0120har vest
P an
\u0120satisf ies
g ood
g ov
b untu
\u0120gener ic
\u0120m ood
\u0120prom ised
\u0120g ear
\u0120He ad
\u0120r anging
\u0120prec ision
\u0120sust ained
\u0120exhib ited
B ook
\u0120T er
\u0120as ks
\u0120throw s
rit er
ynam ic
\u0120Cont in
\u0120t ears
\u0120t ied
App lication
\u0120kid ney
\u0120m oon
\u00e7\u0136 \u00a8
\u0120ang ular
\u0120ele ctions
\u0120viol ent
\u0120pen alty
\u0120occur rence
rop ri
\u0120concept s
es ity
\u0120car b
\u0120bare ly
\u00d9 \u0125
10 8
TT P
\u0120W as
\u0120aff ili
\u0120per ceived
d c
\u0120act or
o a
on i
\u0120cool ing
\u0120over whel
\u0120medic ation
\u0120resid ues
\u0120ar med
names pace
\u0120T enn
\u00e5 \u012f
\u0120sa uce
\u0120end ing
\u0120m uc
\u0120s lic
\u0120est e
\u0120W hether
IC ENSE
\u0120wonder ing
\u0120rec overed
neg ative
\u0120( (-
\u0120\u0120\u0120\u0120\u0120\u0120\u0120\u0120\u0120\u0120\u0120\u0120\u0120\u0120\u0120\u0120\u0120\u0120\u0120\u0120\u0120\u0120\u0120\u0120\u0120\u0120\u0120\u0120\u0120\u0120\u0120\u0120 \u0120\u0120\u0120
at tered
\u0120 }}
\u0120pro jection
\u0120jud icial
cond ition
i otic
\u0120carcin oma
\u0120 ----------------------------------------------------------------
ro oms
\u00c2 \u00a4
\u0120t ong
\u01201 17
\u00ce\u00b9 \u00ce\u00ba
\u0120n it
\u0120n ations
\u00c2 \u00ab
\u0120study ing
\u0120diff usion
\u0120cl imb
er ies
\u0120se asons
ra it
\u0120cook ing
> &
\u0120restrict ion
\u0120un like
\u00c2 \u00bf
D av
ble m
\u0120flow ers
ang ular
\u0120pers u
h l
ou ston
\u00c2 \u0123
\u0120b ub
H igh
\u0120to w
\u0120With out
\u0120t ension
ari os
\u0120cont est
\u0120K it
\u0120bo olean
\u0120al ignment
\u0120random ly
\u0120feed ing
\u0120ar c
ab e
\u0120c oding
s ession
ick ing
l ocation
\u0120M att
199 7
\u0120earn ed
m ac
\u0120bu ck
14 0
\u0120spirit ual
ret t
AM P
\u0120rec ruit
\u0120un expected
\u0120profession als
\u0120C at
M et
ap or
\u00d0\u00be\u00d0 \u00b1
\u0120no body
\u012010 5
\u0120R ose
\u00e3\u0125\u00bc \u00e3\u0125
eng ers
\u0120read ily
ay a
\u0120sc ream
\u0120address es
\u0120facilit ate
S w
U P
ast ed
\u00d8 \u00a9
\u012019 84
}} $,
\u0120nut rition
\u00e5 \u00b9
est yle
\u0120Let t
\u0120del iber
ge red
comm and
\u0120j un
\u0120A ud
\u0120inv ited
\u0120pan els
\u01201 16
b ury
\u0120att ributes
\u0120ph ases
\u0120F I
m ask
\u0120clean ing
Act ivity
\u0120mix ing
T otal
\u0120access ible
\u00e0 \u00b4
\u0120R ights
\u0120associ ations
L ong
199 6
\u0120identify ing
\u0120the rap
l ined
\u0120d rew
irect ory
\u0120Pat ients
\u0120par agraph
\u0120ep idem
f our
\u0120insu fficient
\u0120M inn
\\ }
\u00d0\u00b8 \u00d0\u00bc
P ut
y y
\u0120de position
\u0120we ird
t an
\u0120o h
\u00ce \u0136
irt ual
b old
\u0120effect iveness
\u0120p ounds
t ri
et ts
\u0120sy mp
Me an
\u0120put s
c raft
\u0120pr ay
R ange
![ ](
\u0120A sh
01 2
}} (\\
\u0120dec ent
\u0120gr ate
\u0120Un fortunately
\u0120appe als
g un
\u0120L ind
** .
\u0120v ag
\u0120prom ising
\u0120mac roph
associ ated
O p
\u0120dest ruction
ill ary
\u0120vacc ine
\u0120d ip
en v
\u0120resid ual
u ations
inst all
\u0120track ing
if ting
\u0120en orm
T ag
V C
\u0120reson ance
y our
\u0120O pt
\u0120C y
\u0120ult imate
rep resent
\u00c2 \u0139
\u0120t ent
c opy
D i
\u00d0\u00b0 \u00d1\u0122
Ex ec
\u0120break fast
\u00d0\u00be \u00d1\u0124
al so
\u0120dis ability
\u0120Un ivers
su ccess
. :
\u0120G ames
set t
\u0120mole cule
\u0120D ue
\u0120D oug
\u0120trans mitted
ren der
\u0120p ill
\u0120J un
\\ ,\\
\u0120F BI
l ate
\u0120p i
ul ative
0 22
c am
al o
\u0120bl ot
en z
\u00d1\u0123 \u00d1\u0131
t ree
\u00c3 \u00af
\u0120: :
\u0120ro d
\u0120in cons
\u010a\u0120 \u010a\u0120
a way
\u0120de ck
at ile
\u0120Qu ant
erg ic
L ocal
\u0120rel ating
\u0120Plaintiff s
\u0120Stud y
000 2
\u0120K ar
\u0120O p
\u0120a uf
\u0120stom ach
g han
\u0120gu itar
zz le
\u0120prelim inary
S ection
\u00e5 \u00ba
am ic
f all
\u0120phr ase
\u0120C u
He ader
\u0120denomin ator
\u0120en vironments
\u0120b ird
\u0120Ind ust
\u0120lock ed
\u0120mat rices
com fort
\u0120( @
ach ine
\u0120i k
ion es
\u0120< -
ge x
d ers
\u0120fol ks
\u0120promot er
ari ju
\u0120T al
\u0120post erior
arch y
\u0120Pro cess
\u0120consec utive
ERR OR
cy cl
\u01201 18
\u0120ne u
\u0120recommend ations
\u0120displ ays
\u0120constit ute
A E
\u0120a qu
\u0120normal ized
\u0120Con ference
\u012010 9
ariju ana
\u0120ver ify
ort ing
\u0120expect ations
\u0120d rain
\u0120D er
\u0120remem bered
\u012018 0
\u0120pro pose
\u0120h int
IT ED
\u0120We ek
\u0120H ay
\u0120ar rive
\u0120\u00e2\u012b \u00a5
\u0120dro ve
\u0120check ing
ad en
\u0120vess els
\u0120comput ing
\u0120F ord
\u0120president ial
\u0120Rep resent
\u00e6 \u013f
G H
\u0120ple a
op her
\u0120int ense
\u0120re putation
\u0120sho es
\u0120V en
\u0120f i
\u0120wat ers
\u0120qu ot
\u0120pred omin
\u0120L ady
\u0120sc ar
f act
\u0120embed ded
\u0120install ation
\u0120U I
\u0120El izabeth
V E
\u0120ingred ients
H istory
\u0120pul monary
\u0120conc ert
\u0120an ger
\u0120sho pping
\u0120lif etime
\u0120\u0120\u0120\u0120\u0120\u0120\u0120\u0120\u0120\u0120\u0120\u0120\u0120\u0120\u0120\u0120\u0120\u0120\u0120\u0120\u0120\u0120\u0120\u0120\u0120\u0120\u0120\u0120\u0120\u0120\u0120\u0120 \u0120\u0120
ment e
\u0120An ton
ic i
wed ge
\u012010 6
\u0120con vey
m ade
\u0120le uk
\u0120contract s
\u00c3\u00a8 s
\u0120ass ignment
L Y
\u0120contact s
\u0120t ang
\u0120sole ly
\u0120Ox ford
\u0120intellect ual
' _
d isc
; ;
\u0120consist ently
\u0120del ight
\u0120rep orter
ag a
\u0120Sy ria
iz able
11 5
19 95
\u0120M P
\u0120pl asm
\u0120Profess or
iv ariate
\u0120mer ch
ra ine
\u0120c od
\u0120implic ations
_{ -
\u0120in fect
yt es
\u0120Offic er
\u0120un clear
et ary
\u0120Columb ia
elf are
\u0120difficult ies
t bl
set minus
\u0120R en
IT E
N um
\u0120ent hus
\u00e7 \u00bb
w ould
\u0120Child ren
\u0120o ught
\u0120g otten
\u0120L atin
\u0120M icro
\u0120x e
ody nam
H i
+ ^
\u0120Pol it
\u0120treat ing
\u0120d oses
ir th
N G
SI ZE
\u0120F air
\u0120lib eral
\u0120s que
ET H
\u0120C ond
on ing
\u0120R ound
sem ble
t mp
b ec
In te
\u0120box es
im m
\u0120territ ory
\u0120collect ive
p red
ag ent
ob ic
fl ags
\u0120doct rine
an alysis
\u0120D at
\u0120in herent
ag ic
we re
\u0120switch ing
\u0120kn ife
\u0120M it
\u0120illustr ated
\u0120or bit
\u0120ret riev
\u0120dut ies
U til
\u0120C ost
\u0120lay out
\u0120enzym es
\u0120K ent
over ty
\u0120B ru
\u00e5 \u00bc
em ail
ple x
\u0120interpret ed
ab bit
\u0120tal ent
clus ively
\u0120H ug
\u0120feat ured
\u0120valid ation
\u0120pregn ant
M s
\u0120comput ers
\u0120Ed ward
\u0120tox ic
\u010a\u0120\u0120\u0120\u0120\u0120\u0120\u0120\u0120\u0120\u0120\u0120\u0120\u0120\u0120\u0120\u0120 \u0120\u0120\u0120\u0120\u0120
Equ al
\u0120M ah
\u0120L y
\u0120h its
\u0120sh ield
\u0120liter ally
\u0120enthus i
\u0120defect s
\u0120fuck ing
\u00e2\u0122 \u0127
em pl
\u0120L E
\u0120cap s
ber ry
\u0120ign ored
\u012012 8
\u0120Pr ince
ac her
\u0120util ized
reg ular
b c
\u0120var ied
\u0120\u0120\u0120\u0120\u0120\u0120\u0120\u0120\u0120\u0120\u0120\u0120\u0120\u0120\u0120\u0120\u0120\u0120\u0120\u0120\u0120\u0120\u0120\u0120\u0120\u0120\u0120\u0120\u0120\u0120\u0120\u0120 \u0120
n orm
\u0120own ership
10 9
\u0120den otes
ac co
v ir
h om
S che
\u0120ch amp
\u00d7\u0137 \u00d7
\u0120head ed
\u0120de eper
oc ols
art s
T ake
\u0120l y
c ases
\u0120F oot
\u0120f illing
\u0120ro y
\u0120es cap
B it
\u0120complex es
\u0120connect ing
\u0120C PU
\u0120R A
ie ve
\u0120att ributed
\u0120phys ician
are a
\u0120\u00d0\u00bd \u00d0\u00b5
\u0120p ipe
\u00e2\u0122 \u012d
\u0120mus e
ES M
\u0120Hol ly
^{ -\\
h space
\u0120interview s
\u0120repeated ly
~ *
\u01206 00
or o
\u0120ar ise
ig ate
\u0120B C
gr oups
Exp and
des c
\u0120P ath
FL AG
ol en
\u0120equ ilibrium
ach us
\u0120em otion
Re ference
\u0120ref lection
\u0120j ail
al ities
\u0120dys function
\u0120m u
\u0120Ber lin
\u0120benef icial
\u0120res idence
ch t
in ator
\u0120w ing
\u0120F unction
\u0120laug hed
Pro cess
\u0120p m
\u0120ed it
\u0120se eds
S pe
\u0120neigh b
\u0120guid ance
\u0120grav ity
\u0120o cean
par ams
ne x
\u0120describ ing
\u00c3 \u00ac
\u0120W in
\u0120S av
\u0120int ens
og ram
\u0120along side
is l
\u0120S R
\u0120ch at
\u0120isol ation
\u0120vis its
\u0120visit ors
oun ce
S V
}$ $\\
\u0120invest ors
inn ers
\u0120bur st
\u0120min i
ett ings
\u0120N ic
\u0120occur ring
\u0120names pace
\u0120work er
\u0120vari ant
\u0120adapt ed
\u0120reve als
\u0120gu ests
\u0120mem ories
\u0120regist ration
\u0120B udd
\u0120M as
\u0120B ra
f c
R un
\u0120c ub
\u0120W ord
\u0120M ap
\u0120rul ed
\u0120over ride
10 6
\u0120N ight
low er
\u0120integr ity
hold ers
\u0120ra ising
] -
W ill
\u0120F if
\u0120 ub
\u0120sch olars
l anguage
\u0120f ert
\u00e2 \u012b
c ache
plic ity
j ar
IS A
\u0120top ics
\u0120p neum
ro gen
\u0120C C
\u0120conj ug
\u0120attract ive
SE LECT
\u0120+ +
ow ed
\u0120branc hes
\u0120ce rem
ol is
\u0120govern ments
\u0120express ing
IG N
er red
\u0120specific ity
m ethyl
\u0120correl ations
\u0120v otes
\u0120fr ames
L P
; \">
ment ioned
ol o
\u0120nic ht
form s
\u0120land scape
f inal
b inding
Le vel
scrib e
R ad
\u0120m \u00c3\u00a1s
- *
\u0120arriv al
\u0120N az
\u00c3 \u0130
\u0120prefer ably
he ld
p ow
M ain
\u0120m ock
\u0120entr ance
\u0120\u00c3 \u0132
199 4
\u0120cr ash
\u0120P rior
\u0120g athered
miss ible
\u0120L ear
\u0120Th om
r b
\u0120l ys
\u00d0\u00be \u00d1\u0123
\u0120th rown
R ES
ag g
end or
\u0120inc hes
th ur
\u0120fe as
\u0120And erson
\u0120lik es
\u0120l um
\u0120Lew is
burg h
\u0120month ly
ed ge
================ ====
\u0120arg s
w atch
_{ (
\u012010 3
\u0120A z
\u0120dim in
\u0120n i
\u0120can n
\u0120def ines
l ab
\u00c5 \u00a3
hel p
\u0120per ception
\u0120decl ined
ard ed
t otal
\u0120\u0120\u0120\u0120\u0120\u0120\u0120\u0120\u0120\u0120\u0120\u0120\u0120\u0120\u0120\u0120\u0120\u0120\u0120\u0120\u0120\u0120\u0120\u0120\u0120\u0120\u0120\u0120\u0120\u0120\u0120\u0120 \u0120\u0120\u0120\u0120\u0120\u0120\u0120\u0120\u0120
\u0128 \u0134
ut t
at on
\u0120hop es
\u00d0\u00b8 \u00d0\u00b5
\u0120o lig
\u0120emerg ed
vert ed
\u0120conv icted
\u0120constit u
Ch ange
ur ations
e cho
\u0120Je an
\u0120\u00c3\u00ae n
\u0120valid ity
\u0120L I
\\! \\!
pr ison
\u0120\u0120\u0120\u0120\u0120\u0120\u0120\u0120\u0120\u0120\u0120\u0120\u0120\u0120\u0120\u0120\u0120\u0120\u0120\u0120\u0120\u0120\u0120\u0120\u0120\u0120\u0120\u0120\u0120\u0120\u0120\u0120 \u0120\u0120\u0120\u0120
\u0120et t
b us
\u0120any body
\u0120vari ability
\u0120m old
cell s
less ly
\u0120aw esome
\u0120N ick
\u0120Br ad
\u0120Reg ister
h n
print f
et erm
vers ely
im mun
\u0120at om
\u0120\u0120\u0120\u0120\u0120\u0120\u0120\u0120\u0120\u0120\u0120\u0120\u0120\u0120\u0120\u0120\u0120\u0120\u0120\u0120\u0120\u0120\u0120\u0120\u0120\u0120\u0120\u0120\u0120\u0120\u0120\u0120 \u0120\u0120\u0120\u0120\u0120
\u0120R yan
\u0120Pak istan
effect ive
J o
con v
\u0120C reate
\u0120transport ation
st op
\u0120trans actions
\u0120symm etric
\u0120E urop
de bug
\u0120Pro duct
\u00e4 \u00bc
\u00c3\u00b5 es
\u00e3\u0123 \u0137
\u0120label ed
\u0120inf ant
\u0120impl ant
\u0120restrict ions
\u0120M ill
\u0120A ccess
\u0120conv in
art icles
\u0120pack et
F s
\u0120Be ach
N ull
necess ary
; </
01 3
\u0120A G
^ )
cl er
\u0120tens or
frame work
ph ia
ot helial
B V
\u0120Co ast
\u0120fib ers
\u0120lo ose
b ur
\u0120mod ul
e ed
Val id
\u0120In f
s end
\u0120Con sequently
\u0120immig ration
\u0120exist ed
\u0120bank ruptcy
en za
am os
\u0120S ometimes
\u0120Ari zona
\u0120N AS
\u0120Par liament
inn ed
\u0120E le
pe ople
\u0120function ality
\u0120sp ont
\u0120in ev
\u0120ch ains
\u0120b orrow
\u00e8 \u0122
\u0120\\ #
p ur
and y
\u0120su icide
\u0120trans mit
Con st
\u0120Ad am
\u0120in sect
\u0120brother s
IT ION
\u0120suppl ies
\u0120\u00d0 \u00b3
\u0120In dex
\u0120exec ute
\u0120burn ing
id ine
g ame
\u0120C ro
\u0120spec ify
\u0120gover ning
\u0120dis rupt
\u0120L ev
ph al
\u0120b undle
\u0120design ated
fig ure
\u0120beg un
> .
\u0120B ab
11 6
ic ations
\u0120satisf action
\u0120categ or
\u0120imp ression
\u0120chem otherapy
\u0120person ality
lin ux
ard ing
\u0120Ps ych
D O
ol n
\u0120th rew
\u0120d in
\u0120conf ident
\u0120instr uments
\u0120eng agement
\u0120mitochond rial
ub le
\u0120p ad
\u0120block ed
\u0120l umin
\u0120sa ke
g ly
\u0120surve illance
\u0120an terior
\u0120te asp
\u0120grad ually
Ch rist
m ates
\u0120hospit als
\u0120genu ine
\u0120B L
h im
\u0120f ibr
b ind
\u0120 \u00e2\u012a
\u0120Kore an
V ar
\u0120coord inate
\u0120fact ory
\u0120anc est
ure au
\u0120t act
adel phia
\u0120he aling
al g
T X
\u00e6 \u0122
app lication
\u0120assum ptions
ac ht
\u00e2 \u0126
se ason
T ask
\u0120tw elve
D IR
ric ular
\u0120J ordan
0 23
MO ESM
\u0120v ig
} \"
cl ock
\u0120W he
\u0120ad oles
\u0120en ables
\u0120Method s
\u012010 8
\u0120op ens
\u0120ret ain
\u0120Islam ic
\u0120sus pected
\u0120has h
\u0120quad r
T ool
\u010d \u010a\u0120\u0120\u0120\u0120\u0120\u0120\u0120\u0120\u0120\u0120\u0120\u0120\u0120\u0120\u0120
\u0120exp on
\u0120seg ments
\u0120B ul
\u0120h ip
\u0120 ions
\u0120den y
\u00c5 \u012f
\u0120p adding
\u0120Cons erv
\u0120my th
st ers
\u0120your s
cont ainer
\u0120 \u010a\u0120\u0120\u0120\u0120\u0120\u0120\u0120
\u0120lab els
\u0120T erm
\u0120W ild
os omal
\u0120epis odes
ia z
n l
\u0120wa ited
; &
\u0120tra ject
st age
k u
\u0120defe at
\u0120H istor
itud inal
B as
Col umn
\u0120phys ically
\u0120hol iday
\u0120div or
\u0120cos m
\u0120size of
od d
l at
M ake
\u0120ent re
\u0120ab dom
\u0120p ars
\u0120encoun ter
\u0120de als
\u0120Ser ver
\u0120n as
\u0120compat ible
\"} ;
\u0120deriv atives
\u0120den ial
v ised
\u0120Color ado
ord inary
u cl
\u0120t ap
anc ers
\u0120P rem
\u0120th rom
\u0120art ificial
clip se
o es
\u00c2 \u012e
P res
ple te
. ).
il st
\u0120sure ly
roph y
\u0120$ .
y ers
\u0120\" /
\u0120dis crete
\u0120different ly
ou ds
\u0120m l
h ash
W A
E val
\u0120do zen
\u0120brief ly
\u0120reli ability
\u0120under went
\u0120cav ity
\u0120mus cles
\u0120gl ob
\u0120ass istant
\u0120mat ched
pr im
\u0120N ature
\u0120Af ghan
\u00c3 \u013a
C le
\u0120belie fs
\\_ [
12 6
p rom
\u0120p ushing
\u0120p ub
ob acter
\u0120thro at
\u0120bl ame
\u0120vert ices
\u0120Israel i
\u0120a pt
11 4
\u0120dist ant
hand le
\u0120susp ension
aps ed
\u00d1 \u012c
12 4
\u0120comb ine
\u0120contem porary
\u0120insert ed
is i
\u012019 81
\u0120bond s
r ass
\u0120cross ed
\u0120remark able
\u0120system ic
T itle
l an
\u0120elig ible
as ia
itz er
\u0120off ensive
\u0120d ont
\u0120C ore
\u0120Sc iences
\u0120f \u00c3\u00bcr
\u0120estim ation
b at
ch a
\u0120Min istry
S earch
\u0120v oting
\u0120phys iological
Gen eral
\u0120An th
\u0120l ap
aceut ical
am er
\u0120M AP
am o
D H
\u0120b old
\u0120scal ar
19 90
pl ates
d iff
\u0120des ert
\u0120progress ive
\u0120cardi ovascular
\u0120 ).
\u00e3\u0123\u00a6 \u00e3\u0123\u0126
Pro duct
\u0120delay ed
\u0120conspir acy
\u0120l ands
\u0120C ub
\u00c5 \u00bc
b oot
\u0120c ot
\u0120scen es
\u0120sp oken
f ather
ail ing
\u0120pro long
sk y
Conne ction
\u0120point ing
p any
\u0120v a
\u0120weight s
achus etts
\u0120over night
oc key
\u0120f ought
\u0120phen otype
e lect
omorph ic
\u0120elim inate
\u0120Pl ace
\u0120break s
der ived
t or
\u0120ex port
\u0120\u0120\u0120\u0120\u0120\u0120\u0120\u0120\u0120\u0120\u0120\u0120\u0120\u0120\u0120\u0120\u0120\u0120\u0120\u0120\u0120\u0120\u0120\u0120\u0120\u0120\u0120\u0120\u0120\u0120\u0120\u0120 \u0120\u0120\u0120\u0120\u0120\u0120\u0120
\u0120luck y
\u0120conf used
\u0120Im ages
\u0120sens ors
\u0120R ail
re place
12 9
\u0120quant ities
\u00e4\u00ba \u00ba
im ages
\u00e5 \u0129
\u0120s quad
$ ]{}
\u0120C reat
at iv
\u0120lov ely
\u0120L inux
\u0120max imal
requ ency
ole cular
\u0120equ ipped
\u0120pain ting
\u0120platform s
\u00e9 \u0129
\u0120Administ ration
\u0120C re
En c
\u0120comp lement
\u0120 \u00d9\u0127
z es
\u0120synthe tic
\u0120E C
ut able
el come
C ustom
o j
\u0120se ats
\u0120v oor
y ard
\u0120short ly
\u0120C ome
dom ain
m eta
\u0120cour ses
\u0120 ubuntu
\u0120program me
: =
\u010a\u0109\u0109\u0109\u0109 \u0109\u0109\u0109\u0109
th ree
\u0120F ull
\u00e2\u0136\u0122 \u00e2\u0136\u0122
\u0120reg ulated
\u0120C F
\u0120N othing
par ison
\u0120N orm
\u0120f itting
\u0120Tor onto
\u0120B ible
id i
\u0120Ad v
ress ing
\u0120prevent ing
as hes
iox id
\u0120M om
\u0120man ually
ul ent
> \\
\u0120Pr inc
\u0120obt aining
\u0120fall en
\u0120d op
199 3
c ourt
\u0120coll apse
p riv
\u0120comb inations
\u0120tren ds
\u0120cust ody
\u0120A LL
\u0120polit icians
\u0120P ri
\u0120ch olesterol
ia h
Q ue
\u0120detect or
\u012019 82
b ian
look ing
^{ +
\u0120affect ing
pl ane
D el
Mod ule
\u0120tick et
\u0120dam aged
\u0120W E
\u0120should ers
\u0120S S
\u0120behavi ors
end ers
claim ed
\u0120M arg
c hers
\u0120\u00c3 \u00a5
\u0120\u0120\u0120\u0120\u0120\u0120\u0120\u0120\u0120\u0120\u0120\u0120\u0120\u0120\u0120\u0120\u0120\u0120\u0120\u0120\u0120\u0120\u0120\u0120\u0120\u0120\u0120\u0120\u0120\u0120\u0120\u0120 \u0120\u0120\u0120\u0120\u0120\u0120\u0120\u0120
\u0120incor rect
\u0120le ak
w rap
\u0120t ar
RE AD
\u0120viol ated
ent e
\u0120head ing
\u0120K ong
id av
\u0120K at
\u0120H an
\u0120capt ain
\u0120peak s
\u0120d ating
\u0120occup ied
\u0120h ill
vere x
\u0120v ibr
\u0120C rim
\u0120dis abled
\u0120cl ause
\u0120br on
ov en
ro cy
new s
\u00e4\u00b8 \u0143
\u00e5\u013e \u00a8
~ )
\u0120rec ipe
\u0120accur ately
C a
ure r
ed e
Ch apter
G od
\u0120L yn
\u01201 35
\u00d8 \u00a8
\u0120excess ive
abl ing
\u0120sm ell
\u0120R oss
\u0120P BS
\u0120gl ut
\u0120e ars
\u0120Gr ant
\u0120disc ount
\u0120stri king
m ma
\u0120ext ending
z one
D ER
U rl
\u0120cult ured
it age
\u00e3\u0124 \u0135
\u0120particip ated
D em
\u0120sc aling
p read
\u0120public ly
ph ant
on omy
\u0120n os
\u0120M ars
\u0120galax y
\u0120predict ions
\u0120Alex ander
N I
\u0120od ds
\u0120focus ing
\u0120phosphory lation
TH ER
\u0120transform ed
\u0120Spec ifically
enn is
\u0120t we
\u0120p ressed
\u0120T ax
. *]{}
\u0120O P
\u0120K now
\u0120T yp
\u0120br illi
$ ^{-
\u0120Nav y
j et
\u0120st ellar
mer ce
\u0120sp ark
\u0120bound aries
\u0120Sc he
od ge
\u0120Ag ency
w alk
\u0120c ul
\u0120Harr is
\u0120d ar
\u00e3\u0124 \u00a4
pt ic
\u0120g raft
en na
w indow
\u0120select ive
\u0120win ner
W ait
FI LE
\u0120leg end
ck er
\u0120my st
D ir
ch annel
\u0120bi ke
\u0120ren dered
\u0120aim s
\u0120threat ened
ce ive
\u0120establish ment
\u0120d reams
og a
\u0120\u00c2\u0142\u00c2\u0142 \u0120\u00c2\u0142\u00c2\u0142
script ion
ucle ar
e ur
\u0120super n
\u0120\u00d0 \u00b5
\u0120S W
\u0120g ross
tr ack
l ings
\u0120strict ly
\u0120Medic ine
\u0120r ating
\u0120m arijuana
\u01201 32
\u0120fif ty
S erv
11 11
\u0120develop er
\u0120g rain
! )
\u0120d ump
\u0120stret ch
\u0120inv ariant
\u0120T en
\u0120G re
\u0120part ly
\u0120s oph
\u0120process or
\u0120sc anning
a que
\u0120or ange
Off set
\u0120in verse
\u0120g re
\u0120corpor ation
\u0120S em
\u0120pot ent
\u0120f ate
13 5
\u00e5 \u00af
C ore
\u0120flav or
\u0120l ibraries
\u00e3\u0122 \u012e
ick er
\u0120surround ed
\u0120specim ens
\u00e3\u0122 \u012f
S W
AV E
\u0120sh aft
\u0120attempt ing
\u0120optim ization
\u0120V ill
app ropri
\u0120log ical
\u0120toler ance
\u0120convin ced
t oken
\u00e7 \u013d
\u0120circ ular
P ORT
\u0120ret ro
\u0120sh ots
\u0120\u0120 \u010a
\u0120bre ach
\u0120R ather
\u0120week ly
\u0120D ifferent
a id
\u0120conf usion
id get
col on
ph osph
\u0120bel t
OV ID
\u0120appro ached
\u0120comput ation
if iers
cl osed
\u0120p anc
\u0120P etition
\u0120nucle us
M us
\u0120cap abilities
\u0120camp us
\u0120communic ate
O ST
\u00d8 \u00b9
\u0120r anges
\u0120tra its
\u0120Bro ad
\u0120upt ake
\u0120P rom
\u0120am ended
\u0120comp ression
E P
ound ing
\u0120\u00ce \u0136
H ar
\u0120at omic
\u0120reflect s
oc he
ed u
\u0120En vironment
\u0120\u00cf\u0126 \u00ce\u00b7
[ **
\u0120dist inction
T ube
\u0120Py thon
M ac
h w
\u0120te ch
\u0120m s
oc oc
M AP
supp ort
\u0120d ent
aw are
sh aped
rit is
GF R
\u0120st iff
\u0120prepar ing
\u0120L ink
\u0120_ ,
\u0120fro zen
ab ama
\u0120ob esity
A v
\u0120pe pper
In v
T F
h d
P os
\u0120f its
\u0120st ake
\u012019 79
ens ing
\u0120deb ug
AB ILITY
\u0120mind s
\u0120ag gressive
fl oor
\u0120dist ances
\u0120\u00ce \u00b3
16 8
ang el
ac les
\u00c2 \u0126
\u0120S af
\u0120Mo ore
\u0120favor able
B s
I AL
\u0120p ap
h bar
\u0120dark ness
child ren
\u0120ple ased
it us
\u0120in line
\u0120dis pos
\u0120s aving
\u0120System s
\u0120p ace
st rap
\u0120let ting
\u0120\u0120\u0120\u0120\u0120\u0120\u0120\u0120\u0120\u0120\u0120\u0120\u0120\u0120\u0120\u0120\u0120\u0120\u0120\u0120\u0120\u0120\u0120\u0120\u0120\u0120\u0120\u0120\u0120\u0120\u0120\u0120 \u0120\u0120\u0120\u0120\u0120\u0120
\u0120C P
m other
\u0120won dered
\u0120Can cer
\u0120ant agon
_ +
doc s
He ight
\u0120r h
P osition
m ate
\u0120ch ap
pe ction
\u0120cho osing
KE Y
\u0120d ying
ell i
\u0120revers ed
\u0120m im
\u0120pros pective
\u0120ut ter
199 2
\u0120comm ands
inte gr
\u0120t ie
s ime
\u01201 34
infl ammatory
we alth
ang o
Ed it
\u0120sp an
pp ers
ific ant
\u0120h ack
\u0120aff airs
\u0120p ending
\u0120discl osure
* =
\u00cf \u0130
oun ter
\u0120m ile
\u0120G reg
v ia
\u012019 50
\u0120equ ality
\u0120accom pany
Or der
\u0120J SON
\u0120epit helial
A h
01 1
\u0120heav en
\u0120T itle
h ole
\u0120re pos
000 5
ly n
up le
ides pread
p air
R O
\u0120Hol y
\u0120hop ed
\u0120\" #
\u0120road s
\u0120Te le
)\\ ,
orne ys
\u0120imp ressive
\u0120Scot land
\u0120in jected
\u0120N FL
\u0120def ining
\u0120enem ies
\u0120occasion ally
\u0120an th
\u0120Rad io
\u0120air port
\u0120n ous
x imate
\u0120trans parent
jo in
rom agnetic
\u0120Emp ire
\u0120ex empt
sime q
h uman
\u0120b om
\u00d7\u013b \u00d7
\u0120attack ed
\u0120al arm
\u0120abandon ed
O pt
\u0120st ained
\u0120cons ensus
\u0120tr im
\u0120i Phone
ik es
\u00e3\u0123 \u0142
\u0120em pir
\u0120vis iting
\u0120! [
\u0120sp ots
\u0120electric ity
ou ri
sec urity
or ient
com ment
\u0120p ist
gg ed
\u0120} )
\u0120D utch
)) /
\u0120elder ly
\u0120propos ition
\u0120e leg
\u0120suggest ions
\u0120D aily
\u0120M L
c ustom
' }
Ste p
\u0120 ip
s un
\u0120Ch o
\u0120adjust ment
\u0120act ed
\u0120can cel
\u0120pres erve
\u0120up set
re ference
\u0120investig ations
K S
\u0120m ol
20 9
\u00e3\u0123 \u0124
\u0120indic ation
\u0120Ar k
anc ies
in terest
=\" @
\u00e3\u0123 \u0131
S ing
\u0120tong ue
cl osure
\u0120cent uries
\u0120emot ions
\u0120 -------
\u0120compar isons
}} _{\\
\u0120H ong
\u0120H as
\u0120B or
24 0
\u0120E uro
\u0120+ \\
\u0120cort ex
els on
anc ial
\u012010 7
\u0120d ir
\u0120intrac ellular
\u0120co ating
\u0120G ro
F our
\u0120D or
\u0120m erg
\u0120sol ved
\u0120vulner able
Con f
\u0120pro pri
tr ation
\u0120author ized
\u0120hand ed
\u0120sec ured
ick ed
\u0120prob able
\u00c3\u00a9 m
\u0120model ing
at om
\u0120C OP
qu er
\u0120polym orph
es ota
i y
J an
w ait
\u00d9 \u0124
conne cted
\u00c3\u00a9 r
ok er
w d
Des pite
ir ts
et c
\u0120Mass achusetts
ore r
\u0120gold en
\u0120d b
Un it
lo op
\u0120y a
t urn
\u0120t out
\u0120prosec ution
\u0120microsc opy
AM E
\u0120&= &
ict ure
\u0120sc roll
Ent ry
\u0120d ense
Addition al
\u0120sol o
\u0120H art
N ames
st ud
r ated
\u0120l ux
the ir
pl ot
\u00c3 \u00b9
\u0120sp ray
\u0120bed room
\u0120conscious ness
\u0120N F
,\\ ,
S ur
f ar
term inal
qu arters
\u00ef\u00bc \u012b
s yn
\u0120Art icle
\u0120apprec iated
\u0120discl oses
cm d
\u0120legisl ative
\u0120j son
\u01201 33
en ergy
\u0120susp ended
\u0120Addition al
\u0120vol umes
ock er
\u0120energ ies
\u0120l iv
\u0120n ons
\u0120accompl ished
un es
\u0120belong s
\u0120fat ty
\u0120satisf ying
\u0120cor n
\u00e8 \u00ae
in stein
Th us
D a
\u0120sh irt
ili pp
T L
\u0120H ad
\u0120driv es
\u0120dram atic
\u0120S yn
\u0120Pr im
\u0120m L
\u0120act ors
ops y
\u0120conserv ation
\u0120off ices
D iscussion
us p
\u0120A V
\u0120emerg ing
\u0120ar row
d ated
les h
ethe less
Deb ug
\u0120limit ing
\u0120gener ator
> ::
\u0120de put
\u0120res in
GF P
c pp
\u0120S oc
\u0120alleged ly
\u0120n itrogen
\u0120al ien
\u0120ste re
\u0120jo ining
\u0120m ath
\u0120Bl ood
\u0120att achment
\u00d0\u00bd \u00d0\u00b8
\u0120m arch
\u0120r if
\u0120circ uits
og s
\u0120govern or
\u0120tri es
D ist
\u0120W atch
\u0120G ree
\u0120A k
\u0120D ark
\u0120O s
\u0120As sembly
\u0120sil icon
\u0120d ressed
\u0120c ried
\u0120D om
\u0120polynom ial
\u0120re aches
T w
\u0120p overty
< <
AS H
\u0120o ven
\u0120Sh ort
est y
\u0120Palest in
\u0120members hip
\u0120w ider
C r
\u00e3\u0125 \u012a
\u0120h anging
\u0120cert ificate
\u0120bur ied
/ .
\u0120threat s
\u0120r s
199 1
he res
\u0120l oyal
\u01208 00
ph ase
Int roduction
\u0120coron ary
\u0120A venue
\u0120symb ols
\u0120pe er
< !--
OV A
\u0120flow s
\u010a\u0120\u0120\u0120\u0120\u0120\u0120\u0120\u0120\u0120\u0120\u0120\u0120\u0120\u0120\u0120\u0120\u0120\u0120\u0120\u0120\u0120\u0120\u0120\u0120\u0120\u0120\u0120\u0120\u0120\u0120\u0120\u0120 \u0120\u0120\u0120
BU G
b order
EN ER
\u0120critic ism
\u0120ex ert
\u0120sw ord
\u0120surv iv
\u0120clos ure
14 4
\u0120pun ishment
cept ions
\u0120cl othing
\u0120clin ic
\u00ef\u00bc \u012a
\u0120represent ations
\u0120prot ocols
\u0120 \u00e1\u00bc
\u0120cir cles
\u0120mo ist
\u0120mat ure
\u010a\u0120\u0120\u0120\u0120\u0120\u0120\u0120\u0120\u0120\u0120\u0120\u0120\u0120\u0120\u0120\u0120 \u0120\u0120\u0120\u0120
\u0120** *
\u0120d ried
\u0120o v
\u0120exp ense
\u0120webs ites
' (
all as
\u0120frag ments
\u0120pull ing
R R
\u0120prov ince
\u0120Al tern
2 20
\u0120virt ually
in ely
\u0120similar ity
\u0120h i
\u0120d ot
\u00e5 \u0128
\u0120F ive
\u0120res istant
c ia
\u0120s ie
c ategory
\u0120cook ies
\u0120mil it
\u0120cross ing
\u0120h tml
\u0120All en
off s
\u00e4\u00b8 \u012f
\u0120independ ence
ord on
< ?
\u0120consist ed
D W
\u0120t ends
\u0120produ cer
\u0120meaning ful
id ity
\u0120sw ing
\u0120v oted
\u0120appoint ment
\u0120lift ed
\u0120ex clusively
\u0120Phil adelphia
\u0120document ed
a \u00c3\u00a7\u00c3\u00a3o
hy thm
l ag
\u0120accompl ish
\u0120co pper
\u0120H ouston
\u0120Ag reement
ut s
\u0120G aussian
\u0120hypert ension
\u0120em bar
iss a
\u0120aw ait
\u012019 78
S Y
\u0120p ric
\u0120Tur key
\u0120defin itions
\u0120L ive
\u0120L at
\u0120R un
\u0120prom oting
\u00e2\u0126 \u00a2
\u0120enhance ment
\u0120warn ed
L iving
\u0120counter part
\u00e5 \u00bd
ri o
\u0120de emed
\u00e3\u0123 \u012f
11 3
dis p
M enu
\u0120Ap ache
l it
\u0120for ty
\u0120P I
sc ope
\u00c3\u00a9 es
\u0120incred ible
\u0120B ang
\u0120a vec
\u0120M athe
\u0120end othelial
p matrix
ro le
\u0120cur ious
\u0120refer ring
c n
he p
\u0120Hamilton ian
\u0120sleep ing
F ree
ut o
x a
\u0120col i
\u0120birth day
\u0120g ig
\u0120al s
12 2
\u010a\u0109 \u0120\u0120\u0120
i u
\u0120ch ocolate
\u0120A li
os er
\u0120we igh
B oth
em at
m ember
* (-
D at
and al
P RE
rict ion
\u0120o t
b ad
\u0120reg ulate
do i
\u0120g rey
\u0120demonstr ates
r age
\u0120ret ired
\u0120ind ivid
AN G
Eng lish
\u00e6\u013e \u012b
\u00e9 \u0123
en um
13 3
im s
e ach
\u0120G il
\u0120defic iency
\u0120secret ary
\u0120tox icity
he art
\u0120N ob
\u0120O t
\u0120par se
\u0120T ok
\u0120inqu iry
\u0120se al
\u00eb \u012d
\u0120b ases
s creen
\u0120def ensive
ul er
aut h
\u0120in hab
\u0120ext rac
\u0120p ic
19 2
\u0120t rop
on el
ig ue
l ass
\u0120pot ato
\u0120acknow ledge
D raw
) }(
\u0120[ '
\u0120s per
\u0120w idespread
\u0120prevent ed
\u0120er red
ari ance
Inter face
\u0120manag ing
ox ide
\u0120gen omic
Sh ow
\u0120B ox
b ital
\u0120U buntu
\u0120gr ace
i ac
k now
\u0120ent ities
\u0120qu ote
\u0120mother s
99 99
\u0120re construction
\u0120\" \u00e2\u013b\u00aa
\u0120tou ched
\u0120roll ed
\u00c4 \u0141
\u00c5 \u013b
\u00cf\u0126 \u00ce\u00b1
he ll
\u0120m sg
\u0120grate ful
\u0120mot if
T ree
\u0120r ings
\u0120Sc ale
ins ert
\u0120collabor ation
\u0120H al
\u0120nan op
h ou
\u0120ind ices
ph ys
\u0120forg otten
d epend
gl obal
bib r
sh ort
\u0120f iction
iz ers
b est
\u0120mot ions
T ra
\u0120histor ic
\u0120elect rons
\u00e2\u0122\u00b2 -
reg on
\u0120B rian
\u0120Hot el
\u0120isol ates
\u0120resc ue
\u0120sp inal
\u0120H it
\u0120S pr
\u0120ar ising
AS K
conne ction
\u0120M RI
oph ag
\u0120m erc
\u0120inhib ited
\u0120Sh ould
\u0120democr acy
\u0120f ut
x sl
\u00e6 \u0143
que ue
\u0120rece ives
\u00e0 \u00b2
= >
big g
\u0120dec imal
\u0120b ounds
\u0120encoun tered
\u0120proport ional
\u0120sn ap
\u0120ad ip
\u0120la pt
\u0120Ex pl
D ocument
\u0120supp orters
\u0120cond em
ol ves
aud i
\u0120tit les
x f
\u00e2 \u0124\u00ac
im ation
\u01201 37
\u0120t ender
\u0120narr ative
\u0120ch ances
\u0120D irect
iot ics
\u0120In n
\u0120host s
. (
\u0120sl ide
OM E
gen eration
0 25
\u0120Interest ingly
\u0120supp ression
TE ST
\u0120o verex
\u0120she ets
\u0120pro state
\u0120lov es
sc ious
\u0120p ale
ial ize
\u0120S L
\u0120Bro ther
\u0120m elt
IS H
\u0120local ization
\u0120po ison
\u0120Sum mer
\u0120is ot
\u0120Im mun
f ound
\u0120text ure
t n
\u0120res ident
\u0120st ops
C N
\u0120ang i
) _{
\u0120per pet
P ad
\u0120ob sc
\u0120w is
$ ).
\u0120M u
14 7
\u0120efficient ly
m us
O X
\u0120Sp irit
Im pl
\u0120non linear
\u0120dr ama
\u0120polar ization
\u0120Are a
\u0120h ired
\u0120H aving
\u0120r it
\u0120sum m
T oday
for all
se q
\u0120roll ing
c u
( ){
sem bl
e a
de gree
\u0120breath ing
\u0120k an
\u0120graph s
S i
\u0120ret ros
um ing
\u0120sc reens
\u00d8 \u00b3
\u0120mod ifications
AAAA AAAA
\u0120rel ate
\u0120block ing
\u0120vit amin
\u0120t el
T M
\u0120l ake
S un
- $
\u0120stay ing
\u0120fund ed
[ [
\u0120rad ial
art icle
\u0120f itness
000 3
\u0120cap ability
\u0120b atch
t ask
j avascript
) ^{-
\u0120entertain ment
B IT
\u0120t ags
m ass
row th
\u0120behavior al
\u0120Indian a
d riv
\u0120T ai
c z
\u0120he p
19 88
\u0120\u00ce\u00bc m
it arian
in ent
\u0120base ball
\u0120den ying
\u0120sent encing
t ry
og ens
\u0120St ation
ade qu
ad der
\u0120establ ishing
\u0120sub group
G M
w ich
\u0120art s
\u0120ang les
\u0120const ants
\u0120g erm
ot on
}, $$
col l
\u0120on t
19 89
th an
\u0120De ath
\u0120neigh bour
OD U
\u0120basket ball
\u0120gener ations
p ing
C am
per or
f illed
\u0120f is
\u0120R oy
\u0120C orn
\u0120view ing
\u0120\u00e2 \u013b\u00aa
\u0120encour aged
L ife
um my
\u0120f itted
\u0120pl acement
\u0120bu ff
\u0120ar th
\u0120cryst all
\u0120ret ained
ract ed
ast ing
\u00e6 \u00b3
l ich
\u0120complaint s
\u0120N atural
h alf
in ement
h abil
? )
ft en
\u0120sl ope
\u0120= \\
\u00c2 \u012a
\u0120pre ference
\u0120sent ences
u ction
m M
\u0120\u0120\u0120\u0120\u0120\u0120\u0120\u0120\u0120\u0120\u0120\u0120\u0120\u0120\u0120\u0120\u0120\u0120\u0120\u0120\u0120\u0120\u0120\u0120\u0120\u0120\u0120\u0120\u0120\u0120\u0120\u0120 \u0120\u0120\u0120\u0120\u0120\u0120\u0120\u0120\u0120\u0120
\u0120particip ant
\u0120a ug
\u0120horm one
\u0120Mat the
\u0120dom inated
form ing
\u0120cam eras
t ail
inc oln
bul let
\u0120impro per
\u0120Sim on
is o
\u0120mount ains
ph asis
\u0120B all
\u0120An al
\u0120embod iment
pie ce
\u00d0\u00be\u00d0 \u00b6
\u0120want ing
\" ))
\u0120ju ice
\u0120\u00c3\u00a4 r
11 8
\u0120tem p
\u0120h ub
r ank
per p
\u0120\u00c2 \u0139
\u0120decom position
ant h
r andom
\u0120reason ing
t ain
\u0120electro des
\u0120In vention
om ers
Prov ider
\u0120N ations
cons in
\u0120shift ed
pro file
\u0120eas tern
\u0120cur rency
\u0120COU RT
\u00cf\u0123 \u00ce\u00bf
r us
ud es
\u0120S earch
\u0120Jac ob
By Id
E q
mpt y
\u0120PH P
\u00d0\u00b5\u00d0 \u00ba
am y
7 00
em en
\u0120oxid ative
%% %%
\u0120Minn esota
N av
k k
\u0120prejud ice
\u012019 75
\u0120f ond
\u0120fr anch
\u0120sc oring
\u0120z e
\u0120indu ces
\u0120G irl
\u0120Holly wood
en able
\u0120subs id
rit ical
v et
ac cept
\u0120Le on
\u0120| \\
_ [
\u0120farm ers
g it
\u0120ir rad
\u0120ble eding
\u0120L ater
\u0120don or
s ym
\u00c2 \u00a3
ud a
\u0120pl ots
wid get
\u0120enorm ous
ON G
\u0120vir uses
\u0120w ore
13 2
\u0120X ML
m ind
\u0120G ib
\u0120overl ap
++ ;
\u0120M O
ro it
\u0120P ier
\u0120T B
\u0120tim ely
In s
\u0120h oney
\u0120-------- ---
ll a
\u0120aff idav
oc a
\u0120input s
\u0120app end
\u0120determ ines
D F
\u0120d ella
\u01200 1
int o
rep rene
\u00e2\u0122 \u00af
\u0120AT P
\u0120ann oy
\u0120tour nament
ogene ity
\u0120typ edef
b urn
\u0120W ould
\u0120sh ame
U V
\u0120f ru
P y
\u0120Pl us
\u01201 36
\u0120so bre
\u0120mac ro
part y
mod ules
\u0120F isher
a uc
\u012019 76
c ong
r ific
x s
2 25
00 28
\u0120mater nal
\u0120ed iting
b d
\u0120P ear
\u0120doll ar
\u0120em issions
17 5
\u0120was h
\u0120prec ip
ced ure
be an
br as
\u0120character ization
\u0120Atl antic
\u0120W ars
cur sor
() :
\u0120st ating
re z
S F
\u0120long itudinal
\u0120weak ness
g athered
\u0120T NF
\u00ce\u00b9 \u00ce\u00b1
\u0120expl ored
e enth
\u0120T ony
\u0120b arg
\u0120p ink
\u0120t et
\u0120P ART
M iss
\u0120C hen
P ref
\u0120Con st
\u0120challeng ed
\u0120random ized
\u0120wood en
og ue
\u0120b ills
\u0120im prison
\u0120suggest ion
W indows
\u0120H z
AP TER
19 86
oc om
\u0120dep riv
\u0120el abor
\u0120J ane
reason able
\u0120dis charg
\u00d1\u0123\u00d1\u0124 \u00d0\u00b2
\u0120in ject
b oy
\u0120I owa
oprote in
\u0120prom otion
\u0120S ud
h ma
)* -
\u0120w ins
Aut hor
\u0120lif estyle
in en
\u0120cons erved
\u0120Tur k
\u0120P u
\u0120ser vers
\u0120oblig ation
\u0120legit imate
le e
ber y
g ments
O ct
\u0120b ones
\u0120b reat
\u0120Die go
\u0120Du ke
\u0120US B
l arg
\u0120t rivial
\u0120eng ines
P op
am ous
with out
\u0120\u0120\u0120\u0120\u0120\u0120\u0120\u0120\u0120\u0120\u0120\u0120\u0120\u0120\u0120\u0120\u0120\u0120\u0120\u0120\u0120\u0120\u0120\u0120\u0120\u0120\u0120\u0120\u0120\u0120\u0120\u0120 \u0120\u0120\u0120\u0120\u0120\u0120\u0120\u0120\u0120\u0120\u0120
C B
\u0120general ized
\u0120accept ance
\u0120speak er
\u0120ob jection
\u0120 ------------------------------------------------
\u0120is o
\u0120P ur
ol ver
\u00f0 \u0141
\u0120res et
\u00d0\u00bd \u00d0\u00b0
he et
\u0120let s
\u0120disag ree
\u0120en act
\u0120reg ret
\u0120E E
\u0120conver gence
v ens
A X
\u0120K elly
om ed
\u00e8 \u00a8
\u0120med iated
W orld
semb led
\u0120continuous ly
ir ds
\u0120not ation
20 20
\u0120fac ulty
\u0120f iring
\u0120tend ency
ik ip
\u0120st yles
d id
\u0120pri est
\u012019 77
\u0120my ocard
\u0120posit ively
\u0120St one
\u0120F estival
\u0120be ings
in stance
\u0120may or
Tem plate
\u0120acknowled ged
\u0120replic ation
\u0120Def ense
\u0120g host
uten ant
\u0120flo ating
\u0120phys icians
IF T
\u0120tra uma
\u0120ex clusion
\u0120Ar g
\u0120A I
P F
$ _{
an al
Ent ity
p ic
\u0120\u00ce\u00bc g
\u0120\u00d1 \u012f
\u0120dr um
in ine
am an
\u0120ad min
\u0120al umin
\u0120see ks
enc ia
\u0120spect rosc
pro gram
\u0120tick ets
\u0120pack ed
\u0120lack ing
\u0120S ports
ynthe sis
\u0120WITH OUT
H ttp
c ert
\u0120embar rass
\u0120IF N
w ave
\u0120re ven
\u0120sp ir
\u0120fact ual
ous es
B Y
\u0120se iz
\u0120st ared
\u0120pept ides
stitution al
000 4
\u0120poss ibilities
oph il
+ )
St op
\u0120Cl inical
\u0120Sm all
res ource
\u0120Bit coin
\u0120am end
\u0120D ocument
\u0120\u00c3 \u00bc
\u0120sh apes
at en
es see
D oc
\u0120Rev olution
\u0120nav igation
ex port
\u0120sh ifts
ig ration
\u0120con cur
\u0120m os
\u0120expert ise
I ll
\u0120rest ore
met ry
s quare
\u0120corre cted
17 0
\u0120up grade
\u0120diet ary
inter face
\u0120rout es
B ER
\u0120fr ustr
igh ters
15 5
ed a
\u0120term ination
\u0120\u00d0 \u00b0
\u0120Do ctor
apt ic
\u0120heart s
N a
\u0120dis se
\u0120mel an
ur red
\u0120fin ance
\u0120rac ial
\u0120min ing
p resent
field s
\u0120t orn
\u0120manag ers
\u0120retire ment
\u0120Rel ated
\u00ed \u0137
\u0120emph asis
\u0120sh ipping
ore n
\u0120' '
re v
\u0120under go
\u0120claim ing
w en
ex pl
in cess
ig in
\u0120b ip
\u0120prem ium
\u0120secret ion
19 87
M AT
\u0120laws uit
\u0120With in
ru le
\u0120D ise
\u0120\u00d0\u00be \u00d1\u0124
\u0120bl ade
\u00c3 \u013b
\u0120cor p
Gr id
av or
\u0120H im
\u0120respond ents
\u0120B at
\u0120< !--
\u0120b other
m ove
\u0120cup s
\u0120Id ent
\u0120satell ite
\u0120can cers
\u0120Mark et
\u0120S F
\u0120fluct uations
\u0120restaur ants
\u0120pix els
\u0120fil ters
19 85
\u0120Art s
ism o
\u0120cas ual
G s
OW N
\u0120A st
\u00e3\u0123\u0139 \u00e3\u0123\u0141
em on
\u0120questionna ire
\u0120prom oted
\u0120P K
\u0120am endment
IN K
E ffect
\u0120N R
\u0120f ishing
\u0120pur ified
\u0120COM M
\u0120ne c
ogl ob
b ably
let ter
\u0120adv ised
ol in
\u0120purs ue
\u0120fant astic
12 1
ri ends
\u0120up coming
\u00d0\u00be\u00d0\u00b3 \u00d0\u00be
13 8
aut o
\u0120r iding
\u0120impair ment
en ch
\u0120travel ing
\u0120que ue
M o
\u0120minor ity
M AN
ens ively
\u0120disappe ared
e very
25 4
\u0120F arm
B ody
r g
\u0120land ing
\u0120can cell
\u0120You Tube
E s
\u0120ph ones
ikip edia
\u0120inter section
ust ed
\u0120C V
\u0120ag ing
\u00c3\u00a4 \u00c3\u00a4
\u00e0 \u00af
qu ality
\u0120n est
eng ine
\u0120comput ational
\u0120P ow
er d
em ale
\u0120L ag
\u0120Supp ort
\u0120N eg
D iv
j or
for ced
SC s
\u0120pl ugin
\u0120P B
overn ment
\u00c4 \u0135
\u0120On t
\u0120s ons
\u0120How ard
\u0120fe ver
\u0120stimul us
\u0120am big
li um
\u0120club s
id ae
\u0120Bl ock
\u0120to oth
\u0120he lic
) ^{\\
it i
vel ope
\u0120in cent
\u0120e ager
\u0120qu oted
\u0120p iv
eq n
\u012025 5
\u0120scen arios
\u0120f ounder
\u0120dis pers
V ector
13 6
\u0120c ake
\u0120B esides
\u0120f ake
ty pen
\u0120poor ly
Cont ainer
s ort
M ich
\u0120dam n
ort ic
\u0120ass et
\u0120sque e
\u0120protect ing
\u00cf\u012b \u00ce\u00bd
el and
\u0120biom ark
\u0120adv is
**** ,
\u0120sl ot
us ive
\u0120h ipp
add y
}} =
\u00e3\u0123\u013b \u00e3\u0124\u012d
\u0120citiz en
\u0120straight forward
\u0120init iated
\u00c5 \u00ab
\u0120just ify
\u0120present ing
\u0120ap olog
\u0120str at
J S
\u0120ball s
\u0120M B
================================ ================================
\u0120act ively
OR Y
\u0120call back
\u0120f u
s ave
\u0120to mat
\u0120Al abama
\u0120bu f
\u0120mot iv
\u0120opt ional
\u0120 \u010a\u010a
St ack
\u0120sp here
13 9
V ol
\u0120conflic ts
\u0120K evin
\u0120consist ency
\u00e3\u0124 \u012a
\u0120intr insic
\u0120ab ilities
\u0120n ick
\u0120un necessary
own ed
it ated
\u0120int act
Read er
\u0120b ags
\u0120strateg ic
AR S
g ian
L o
OU ND
\u00d0\u00b5\u00d0 \u00b9
stand ard
\u0120D isc
T I
rif ug
typen ame
\u0120pres erved
osc opic
n ia
\u0120particip ating
\u0120M C
\u0120indic ator
\u0120datas ets
\u0120prosec utor
/ \u00e2\u012a\u0134
uls ion
ors hip
\u0120t a
\u0120there in
\u00d0\u00b0\u00d1\u0124 \u00d1\u012e
H ost
rie ve
\u0120wra pped
\u0120der ive
it ance
\u0120J am
\u0120period ic
\u0120Scient ific
m itting
\u0120Cl ark
am ide
\u0120in comp
\u0120E ss
\u0120dro ps
\u0120se cre
pat ient
ar ms
\u0120su ck
l ay
im on
\u0120inf ants
\u0120to ss
P N
ad as
\u0120B M
\u0120offic ially
\u0120bath room
re view
\u0120minim ize
\u0120n urse
\u0120cur v
\u0120B ry
\u0120fif teen
B el
\u0120A h
\u0120Gen er
\u0120chrom at
\u0120Pro perty
L INE
ag ment
\u0120B ad
\u0120my ster
rec ord
g ate
ar o
\u0120expect ation
he alth
v ation
\u0120T ry
\u0120B arn
\u0120Port ug
\u0120n ie
__ _
\u0120every day
est amp
CON FIG
\u0120K a
\u00e6\u012a \u0133
\u0120sp ell
\u0120------------ -
\u0120P eters
\u0120R F
\u0120Em ploy
\u0120c ous
\u0120stimul i
ap ore
ed ly
\u0120innoc ent
\u0120config ured
ig m
\u0120c erv
play er
\u0120He art
Bl ack
\u0120org ans
\u00e2\u0122\u013b .
\u0120el astic
n or
\u0120H om
\u0120at he
\u0120W orks
\u0120K ansas
\u0120D ick
o zy
\u0120dis aster
\u0120a str
\u0120mut ants
\u0120Sim ilar
\u010a\u0120\u0120\u0120\u0120 \u010a\u0120\u0120\u0120
\u0120d ivid
ID E
\u0120ste am
Par ameter
\u0120membr anes
\u0120F a
\u0120L ess
\u0120chrom osome
\u0120lo ans
cont aining
ab ases
\u01201 38
\u0120les ion
ffic iency
H as
ud ge
\u0120function ing
am med
v ariant
Dav id
ev al
\u0120W ales
ou rier
n one
\u0120extra ordinary
\u0120implic it
est abl
S al
\u0120O regon
\u0120sign ing
16 5
\u0120aff inity
\u0120macroph ages
\u0120dis posed
\u0120fig ured
ili ary
\u0120Pat rick
oc l
os in
\u0120r ic
\u0120desk top
\u00e2\u0122\u013f )
\u0120D I
\u0120he x
\u0120gen us
\u0120f atal
pref ix
\u00e5 \u00b8
\u0120f lesh
\u0120morph ology
let al
\u0120down stream
\u0120\u00c3\u00a9 t
\u0120publ ish
b n
\u0120Br idge
\u0120consider ably
m argin
\u0120gu ilt
\u0120Sar ah
\u0120E S
\u0120need le
\\ .
S ort
\u0120M arsh
\u0120tra p
\u0120sol vent
\u0120WARRANT IES
bo ost
13 4
\u0120to wer
\u01201 39
\u0120position ed
\u00e0\u00a5 \u0129
\u0120Ig G
\u0120bar rel
st airs
gr id
rele vant
\u00c8 \u013d
\u0120tax p
\u0120inf il
\u0120B MI
\u0120p ent
\u0120d ated
ro bl
\u0120to b
\u0120agre ements
\u0120key board
is che
================ ========
D ay
W est
\u0120g ently
\u0120M oh
\u0120rel ied
\u0120car riers
\u0120count ing
13 7
\u0120per me
G raph
\u00c2 \u00af
\u0120B BC
um or
ract ice
\u0120necess ity
min ute
\u0120imp aired
spe ed
ul um
\u0120G M
M art
V ERS
\u0120sl ice
\u0120night s
og y
\u0120six th
\u0120can onical
\u0120c athe
\u010a\u0120\u0120\u0120\u0120\u0120\u0120\u0120\u0120\u0120\u0120\u0120\u0120\u0120\u0120\u0120\u0120 \u0120\u0120
\u0120w elfare
\u0120U r
her ic
N ULL
\u0120phot on
\u0120sim ulated
aus ed
\u0120Ch air
\u0120V AL
DE V
\u0120disappe ar
\u0120occas ions
\u00e6\u0137 \u00b0
h olds
\u0120\u0120\u0120\u0120\u0120\u0120\u0120\u0120\u0120\u0120\u0120\u0120\u0120\u0120\u0120\u0120\u0120\u0120\u0120\u0120\u0120\u0120\u0120\u0120\u0120\u0120\u0120\u0120\u0120\u0120\u0120\u0120 \u0120\u0120\u0120\u0120\u0120\u0120\u0120\u0120\u0120\u0120\u0120\u0120
\u0120ext r
\u0120hor ror
\u0120phot ograp
V ER
\u0120important ly
\u0120qu asi
\u0109\u0109 \u0109
\u0120H ope
St and
\u0120T a
i ating
B ased
\u0120coll agen
\u0120vo ices
\u0120py thon
\u0120detect ing
\u0120trans ient
\u0120M ess
\u0120Pro p
ograph ical
C ache
\u0120pr ide
\u0120gr at
\u0120Le vel
\u0120Wis consin
ta h
\u0120un de
\u0120lit igation
\u0120L iber
\u0120cont ra
{ }
it ems
Con vert
\u012012 3
Method s
\u0120C ab
_ *
\u0120expl aining
\u0120represent atives
\u0120c in
\u0120F uture
Y P
ed it
\u0120mut ual
op ter
\u0120ent ropy
D T
bt n
\u0120inhib it
\u0120ph yl
\u0120Le ft
\u0120prof ound
\u0120strugg ling
\u0120respond ent
\u0120pres cribed
\u0120j ew
\u0120V ar
\\ /
book s
re a
\u0120S ure
to x
\u0120p aste
HT ML
\u0120har ass
\u0120A BC
\u0120Christ ians
\u0120M ut
\u0120appe aring
cons ider
m ia
\u0120Commission er
\u0120pl acing
\u0120per missions
pro fit
ap ing
\u012012 7
G reat
\u0120ill ust
\u0120pro c
C ap
\u0120C ra
\u0120al igned
b oth
f ers
RE F
\u0120controvers ial
\u012019 73
\u0120distingu ished
--- |
19 84
\u00e3\u0123\u00be \u00e3\u0123\u013b
\u0120analys ed
to o
I ter
\u0120associ ate
\u01200 9
\u0120infl ation
\u0120light ing
Back ground
\u0120H ub
osc ow
\u0120Govern or
\u0120T rib
&= &
\u0120compet e
\u0120[ \"
\u0120disp ersion
at ar
\u0120E arly
\u0120adapt ation
4 50
\u0120exhib its
\u00d0\u00be\u00d0 \u00ba
\u0120Rec ords
\u0120 ug
\u0120On line
FF FF
display style
.\" \"
R ound
\u0120en rich
p b
\u0120R on
comp onent
P K
\u0120c af
\u0120st olen
f b
\u0120pers istent
\u0120xml ns
\u0120demand ed
\u0120bi os
$ ^{
Typ es
ail ure
\u0120D A
ph an
\u0120according ly
\u0120mod ulation
\u0120neu rolog
ock ets
\u0120burn ed
\u0120\u00d8 \u00a8
id ase
\u0120G C
im pl
se a
\u0120C lick
ro c
requ ire
\u0120incub ation
\u0120investig ating
\u0120announce ment
\u0120rob ot
P ublic
s ed
\u0120FI LE
\u0120g olf
\u0120gener ates
\u0120P erson
\u0120sp o
\u0120Net her
iss ue
\u0120J osh
\u0120Over all
h ist
z t
\u0120Lab our
\u0120F T
\u0120happ iness
Su per
\u0120repl acing
\u0120 ]{}
\u0120coll ision
ac ious
sl ant
\u0120consider ations
\u00d0\u00b0 \u00d1\u0123
\u0120H ind
A uth
\u0120o c
ogen etic
li est
CR E
e an
wr itten
sh ape
\u0120pip eline
F i
\u0120D IS
\u0120St ock
\u0120hand led
\u0120ye ast
}$ -
\u0120h ug
\u0120ch ampionship
\u0120B ud
\u0120Viet nam
\u0120c er
) }{\\
av ailable
f ox
\u0120veget ables
ential s
\u0120P ubl
ol er
he x
\u0120out break
PO ST
\u0120fre ely
Th ose
\u0120kne es
\u0120s ich
ul se
\u0120n p
\u012019 72
N ever
ar ity
\u0120N i
\u00e0\u00a4 \u00b0
\u0120Com mand
\u00e6 \u0142
\u0120Con vention
if act
\u0120dim ensional
pass word
\u0120h an
op ol
\u0120G ene
\u0120B attle
========== =
el er
ow ski
G iven
eterm ined
- ,
\u0120rel ies
\u0120institution al
\u0120feat uring
\u00c2 \u00a1
. \\[[@
\u0120ign or
in os
V I
\u0120to d
\u00d0\u00b8 \u00d0\u00bb
20 4
ID S
\u0120local ized
\u0120R ow
\u0120mer it
\u0120transl ated
ad min
\u012019 74
\u0120y ard
\u0120Gold en
ph ones
\u0120saf ely
acc ount
\u0120Foot ball
\u0120g low
\u0120sold ier
\u0120Up on
0 24
\u0120wis dom
ose x
b one
\u00c2 \u0136
S B
AC C
\u0120dis cre
\u0120not ing
ut ers
\u0120Fr ont
ah oma
att ribute
er ge
\u0120Mary land
\u0120sl ip
\u0120car ries
\u00e3\u0125 \u0125
\u0120absor b
\u0120H A
\u00c2 \u00b2
op athy
\u0120r aces
\u0120Man ager
\u0120w ise
\u0120belong ing
\u0120order ing
\u0120ind ict
\u0120b g
\u0120e ine
\u0120pass enger
ator ies
[ (
re ction
\u0120innov ation
\u0120neighb ors
ab stract
ict ional
\u0120Ch ange
\u0120Ph oto
\u0120cour age
\u0120Fore ign
\u0120flex ibility
\u0120k g
\u0120mort gage
CH AR
!! !
by tes
\u0120pure ly
qu al
\u0120cyt oplasm
\u0120schem es
\u0120cooper ation
\u0120pr ayer
P arent
A ug
en o
p ublished
\u0120qu it
D IS
\u0120K h
\u0120Co oper
oy d
ac o
\u0120L ED
\u0120privile ge
iz ar
\u0120advent ure
\u0120sp ite
es y
\u00e1 \u00b9
map sto
lim ited
\u0120G P
\u0120f right
ul ous
\u0120as pir
ra pper
bin ant
\u0120ar ises
\u0120L as
---------------- ----
\u0120less ons
gen ic
15 7
T om
\u0120L C
\u0120grav it
En ter
\u0120Phil ip
Val ues
\u0120A mb
\u0120account ing
\u0120g i
\u0120 ^{
\u0120teasp oon
\u0120S quare
\u0120form ulation
\u0120graph ics
es h
\u0120as h
\u00e5 \u012e
St ore
\u0120sa il
\u0120\u00ce \u00bd
\u0120p ole
\u0120B ureau
reg ister
\u0120creat ure
17 7
\u0120H ur
\u0120gr asp
\u0120sto pping
\u0125 \u00bd
uc id
\u0120Fil m
\u0120V o
\u0120L incoln
ard o
\u0120res erve
\u0120town s
\u0120bas al
\u0120he mat
\u0120adhes ion
\u0120li able
\u0120bi en
\u0120B alt
\u0120brilli ant
\u0120w ings
\u0120viol ations
\u0120photograph s
\u0120nurs ing
OL D
it ored
be it
, \u00e2\u0122\u013b
\u0120g ard
\u0120nucle i
\u00e3\u0123 \u013f
or ic
\u0120bar riers
\u0120Mount ain
\u0120R ick
\u0120G raph
\u0120oper ational
p gen
\u0120g aze
\u0120sl ave
\u0120P itt
\u0120panc reat
\u0120Ar thur
\u00c3\u00a9 d
\u0120throw ing
\u0120v ic
\u0120initi ative
S orry
\u00e9 \u0138
\u0120F un
\u0120 \u00e2\u0122\u013b
\u00e7 \u012b
\u0120real istic
ess a
0 30
D an
\u00e5\u00a4 \u00a7
\u0120N ation
\u0120M T
\u0120mathemat ical
\u0120eng aging
ol ph
Ret urn
\u0120recur rence
\u0120predict ive
\u010d\u010a \u010d\u010a
\u0120en um
ig o
\u0120address ing
\u0120t weet
appropri ate
\u0120The ory
\u0120individ ually
\u0120contribut ing
st im
\u0120ins pection
Dev ice
\u0120S ie
\u0120T i
\u0120c ave
\u0120volunte ers
us ers
\u0120g ains
w ick
\u0120ag enda
\u0120sub stances
S k
\u0120C ells
resp ons
\u0120among st
} '
\u0120V ery
\u0120ant ioxid
\u0120Un less
\u0120perm its
\u0120B ol
\u0120post operative
\u00cf\u0126 \u00ce\u00bf
\u0120F C
\u0120par liament
\u0120jud ges
\u0120substr ates
D onald
\u0120I mp
\u0120att orneys
\u0120cytok ines
\u0120config urations
\u0120supp ressed
ag ers
\u0120Fore st
\u0120v as
ou ver
\u0120depart ure
\u0120Ph ill
\u0120butt ons
\u0120ex ch
\u0120except ions
\u0120ill um
\u0120t ear
\u0120D B
\u0120Ad ams
\u0120t ies
\u0120an est
in ery
\u0120ins pect
\u0120tem pt
ellig ence
oc on
vere ign
\u0120F ac
\u0120U lt
\u0120s ne
\u0120mot ivation
\u0120ins ights
\u0120Pr ice
\u0120comp ly
\u0120count ed
St ar
ad ows
\u0120tob acco
ig ger
m ov
\u0120S ym
\u0120b ol
isc hen
\u0120r ug
}} ^{\\
\u0120po etry
f g
\u0120broad er
sp in
\u0120sing er
\u0120ver ified
\u0120m ud
\u0120sc ared
\u0120St ory
\u0120Un it
\u0120he sit
\u0120muse um
sw itch
\u0120M otion
\u0120gly c
r idge
\u0120neur onal
\u0120inter ven
anche ster
\u0120convers ations
\u0120V eg
iqu it
\u0120eth anol
\u0120d irty
p n
ill o
.[ ]{
oid al
\u0120 ------
J ack
the m
\u0120imp ly
\u0120\u0120\u0120\u0120\u0120\u0120\u0120\u0120\u0120\u0120\u0120\u0120\u0120\u0120\u0120\u0120\u0120\u0120\u0120\u0120\u0120\u0120\u0120\u0120\u0120\u0120\u0120\u0120\u0120\u0120\u0120\u0120 \u0120\u0120\u0120\u0120\u0120\u0120\u0120\u0120\u0120\u0120\u0120\u0120\u0120
\u0120prim er
\u0120T OP
\u0120incred ibly
ur ches
\u0120F actor
\u0120Tenn essee
\u0120quiet ly
\u0120TH AT
\u0120fluores cent
\u0120length s
\u0120un employ
ition al
\u0120C NN
\u0120law yers
\u0120enter prise
\u0120analyt ical
\u0120gra ve
\u0120Book s
ro d
\u0120subt le
\u0120St ore
init ely
\u0120mer its
\u0120d amp
\u0120re fr
\u0120Afghan istan
\u0120re ception
\u0120sear ched
t f
\u0120sing ing
\u0120h itting
roph ic
ic ion
\u0120o var
\u0120S el
\u0120hun ting
\u0120expand ing
w iki
\u00c5 \u0133
\u0120grad uate
m akers
\u00e6 \u0136
ic he
19 0
e z
ather ine
\u0120Dig ital
\u0120E M
19 80
F ull
\u0120riv al
\u0120H ans
\u0120d ental
\u0120surv ived
\u0120Ret urn
\u0120 \u00ef
om on
P UT
\u0120syn tax
ix el
\u0120Mi ami
r ans
l ated
\u0120var ies
14 3
ag le
\u0120att ach
\u0120char ging
\u0120prison ers
\u0120Exec utive
\u0120Walk er
\u0120rem arks
\u0120S audi
id x
* \\<
\u0120sol ving
\u0120extrac ellular
\u00c8 \u013b
\u0120log in
\u0120inter fer
\u0120$ ('
\u0120un ity
\u0120ed ited
\u0120L LC
az ione
\u0120Rober ts
\u0120m art
\u0120cl ouds
is ot
\u0120eth nic
\u01203 50
\u0120Ob serv
\u0120influ ences
vis or
it ol
\u0120B io
\u0120method ology
p end
\u0120l act
\u0120Stud ent
\u0120e q
ess ed
\u0120rese m
a an
et al
se lected
m n
ur bed
\u0120S ky
\u0120cent rifug
\u0120dis contin
\u0120V E
15 6
.. \\
\u0120metast asis
icip ants
\u0120enc oded
\u0120my el
\u0120decl aration
\u00d0\u00b0\u00d0 \u00b4
.. .,
\u0120$$ {\\
ad ers
\u0120imp ose
her ry
\u0120C ass
B re
\u0120-------- --
\u0120ord in
\u0120Mathe mat
\u0120c ant
ex per
unt ed
\u0120T am
port ation
\u012019 68
\u0120dev oted
re port
or ious
\u0120Victor ia
\u0120perform ances
Ph oto
\u0120R ules
b age
\u0120advert is
bar a
hed ral
product ive
\u0120Mex ican
\u0120T ool
\u00e2\u0122\u013b ,
\u0120b os
if def
\u0120mob ility
ing ton
is ite
qu ire
\u0120debt or
\u0120E ight
ag ain
\u0120J ay
f ly
\u0120comb ining
ro ck
FA ULT
\u0120H u
\u0120res idential
\u0120adopt ion
\u0120place bo
\u0120f irms
\u0120prof its
\u0120Mean while
\u0120album s
er on
\u0120tri ple
\u01200 2
' >
\u0120h ire
\u0120paint ed
}} }(
\u00c3\u00a9 g
\u0120exc use
\u0120sal ary
\u0120le ather
\u0120acqu ire
15 3
r isk
\u0120in adequ
\u0120impact s
\u0120F all
\u0120const ru
\u0120less er
ric hed
kl ahoma
\u0120bes ides
P al
S ession
l ied
Pan el
m ount
\u0120Mor gan
\u00cf\u0122 \u00ce\u00bf
\u0120k a
\u0120eth ical
\u0120sent enced
ab is
ul ing
\u0120guarant eed
\u0120inhib itory
R ule
\" ?
rif ice
\u0120t ons
\u0120F inal
est e
\u0120Miss ouri
}} }_
\u0120st airs
\u0120t utor
\u0120controvers y
tem p
\u0120trans itions
\u0120sort s
\u0120Sil ver
\u010a\u0120\u0120\u0120\u0120\u0120\u0120\u0120\u0120\u0120\u0120\u0120\u0120\u0120\u0120\u0120\u0120 \u0120\u0120\u0120\u0120\u0120\u0120\u0120\u0120\u0120
\u0120gr ants
\u0120Ph ilipp
oc amp
pro of
\u0120P U
\u0120C t
\u0120desc ending
\u0120highlight ed
AC H
In tern
xx xx
\u0120dis position
\u0120ev olved
Rec ord
\u0120br ut
\u0120a in
\u0120ur ine
ol as
\u0120suscept ibility
P ers
\u01200 8
\u0120wor n
\u0120Nether lands
\u0120r ounds
\u0120Se attle
\u0120S ab
\u0120aff irmed
\u0120s ink
B et
\u0120plan es
\u0120O UT
\u0120Common wealth
ge bras
\u0120evalu ating
nut rients
\u0120lig and
\u0120sav ings
\u0120soph istic
\u0120Mod ern
S n
od ot
; \"
\u0120Cl aim
\\] (
\u0120neglig ence
\u0120int estinal
\u0120C e
\u0120Anth ony
\u0120sett le
writ er
\u0120j ag
\u0120att ending
\u0120M oon
cript or
\u0120f estival
de cl
\u0120a rom
z ip
[ $
PE CT
\u0120avoid ed
ip h
al ine
lar ge
\u0120\" <
o ys
\u0120Haw ai
le ading
It ems
B F
\u0120gen otype
\u0120me ets
\u0120out standing
\u0120w rap
\u00e5 \u00b7
k ed
\u0120mon itored
pe at
m iddle
ment ed
\u0120j oke
ij k
\u0120N ev
\u0120coc aine
L oc
\u0120she ep
\u0120conven ience
\u0120Gu ide
\u0120c i
\u0120overwhel ming
\u00e4\u00b8 \u00aa
\u0120assert ed
\u0120ab ortion
\u0120B rief
ig a
ert o
\u0120mem or
A U
ri k
\u0120ref use
\u00cf\u0126 \u00ce\u00b5
at isf
\u010d \u010a\u0120\u0120
\u0120inf ra
\u0120C it
\u0120in ch
\u0120arr ays
\u0120gast ric
\u0120ro cks
row ser
\u0120diag onal
\u0120cont ention
\u00d0\u00b8 \u00d0\u00b2
\u0120adv ances
\u0120arg uing
\u0120bad ly
e u
\u0120V ideo
rel ation
on z
\u0120bo ards
\u0120M I
` .
ik ing
de lete
\u00e3\u0124 \u00af
cle an
\u0120\u00c3 \u00ba
\u0120g li
N othing
cy cle
\u0120Mc G
ress es
id ade
' ],
$ ;
\u0120d an
\u0120Mon te
\u0120E N
gen erate
m ers
comp ass
\u0120mod est
\u0120hand ler
v ideo
\u0120B an
\u0120human ity
hip s
\u0120N ode
19 83
cur s
E F
\u0120br ush
atch ing
\u0120d it
\u0120haz ard
Inte ger
ack er
ud o
\u0120grab bed
w p
\u0120conduct ing
\u0120defe ated
n als
\u0120district s
av age
\u0120dis par
ed er
\u0120pass engers
\u0120Acc ount
\u0120cle ared
\u00e1 \u00bf
\u0120evolution ary
c over
\u0120list ing
\u0120l id
\u0120f aint
ivers ary
), $$
M a
\u0120s ont
\u0120Muslim s
\u012012 1
\u0120De bt
\u0120S in
\u0120M oscow
\u0120transl ate
\u0120c ure
yl ation
\u0120Ex press
C re
\u0120sub stitute
\u0120mist akes
\u0120flu or
\u0120rec k
\u0120a us
\u0120less on
\u0120A bs
\u00e3\u0125 \u00ab
\u0120recruit ment
\u0120tem ple
icul ous
\u0120Un like
hold ing
\u0120an x
\u0120public ations
\u0120s es
\u0120engine er
\u0120l am
ens is
che ll
\u0120D ad
Ar gs
\u0120g reet
-------------------------------------------------------------------------------------------------------------------------------- --------------------------------------------------------------------------------------------------------------------------------
w at
\u0120K al
\u0120det erior
\u0120inv asive
\u0120email s
\u0120S elf
mark et
ed ed
c ould
\u0120b ent
== =
ol k
und o
IC K
\u0120ra ises
\u0120Ins urance
\u0120comm e
\u0120An na
\u0120speak s
\u0120w ounded
\u0120Resp ond
\u0120d ur
\u0120Ret urns
\u00e5 \u00bf
)$ -
\u0120Se lect
3 50
\u0120J ason
ann on
\u0120ess ay
\u0120lapt op
\u0120ad s
\u0120resid ue
c as
R oot
es ian
\u0120cere bral
im it
se en
te enth
\u0120object ives
\u0120i OS
V A
OO K
bid ity
\u0120vi able
\u0120rig id
qu in
\u0120C ould
\u0120thorough ly
ar ound
I ED
\u0120pro xim
\u0120h ast
ut her
\u0120c ats
S K
\u0120tunn el
\u0120util ize
\u0120discuss ing
or dered
3 60
\u0120un iqu
\u0120project ed
\u0120Dis ney
Exp ress
\u0120pain ful
\u0120unf air
W T
\u0120\u00e2\u0122\u013e [
\u0120manufacture rs
\u0120p up
\u0120Kenn edy
c ross
\u0120Ke ep
Reg ister
\u0120E P
ple ments
0 27
\u00c2 \u013e
et e
14 6
\u0120inter rog
\u012019 71
\u0120w age
\u0120C reek
\u0120lob by
\u0120not able
[ -
IN FO
\u0120( <
\u0120P i
\u0120immig rants
\u0120C art
\u0120a wards
B i
\\ #
ou stic
\u0120ste ep
\u0120exp ed
habil itation
eral d
Cons ider
\u0120so vereign
umb led
\u0120D ead
\u0120w ished
\u0120focus es
\u0120dat abases
her ical
\u0120R O
plet ion
\u0120Mc K
\u0120T y
\u0120w er
F ound
an ia
\u00c2 \u0127
\u0120autom ated
\u0120bal anced
\u0120l on
\u0120Thom pson
\u012019 69
\u0120et ern
\u0120Four th
f ocus
AR N
\u0120l ag
cos ystem
z ens
\u0120in con
\u0120cyl inder
t ocol
py thon
\u0120A le
{ $
j oint
\u0120alter ations
\u0120oxid ation
\u0120load s
\u0120ch ips
App ellant
w ind
\u0120arrang ements
\u0120ex clude
r ically
\u0120composition s
\u0120di amond
\u0120F IT
\u0120nurs es
\u0120L oad
\u00e8\u00a1 \u012e
\u0120S ex
\u0120W rit
res ults
\u0120highlight s
\u0120wh ilst
iz za
print ln
\u0120negot iations
\u0120D rug
Col lection
\u0120Be ing
\u0120dens ities
re lease
gen eral
om at
\u0120\u00c5 \u0141
\u0120innov ative
p ire
\u0120crit er
em b
Ex ample
CO DE
\u0120D allas
\u0120ins isted
trans form
\u01200 4
S ettings
tw itter
\u0120incons istent
\u0120prolong ed
\u0120F alse
bs ite
\u0120C SS
\u0120organ isms
p ub
et o
de velop
oth y
in ters
14 9
n def
dep th
\u0120ce iling
B ytes
Hand le
us ions
\u0120\u00e2\u0122 \u0140
\u0120review ing
i am
\u0120\u0120\u0120\u0120\u0120\u0120\u0120\u0120\u0120\u0120\u0120\u0120\u0120\u0120\u0120\u0120\u0120\u0120\u0120\u0120\u0120\u0120\u0120\u0120\u0120\u0120\u0120\u0120\u0120\u0120\u0120\u0120 \u0120\u0120\u0120\u0120\u0120\u0120\u0120\u0120\u0120\u0120\u0120\u0120\u0120\u0120\u0120
\u0120fet al
\u0120E mer
\u0120cerem ony
\u0120[ $
\u0120Sand ers
\u0120rem ed
ug ar
li ver
c ost
\u0120delet ed
\u0120ad sor
\u0120Sy d
\u00e4\u00b8 \u012c
ij ing
99 9
\u0120development al
\u0120dist ress
\u0120sh aped
( {{\\
\u0120clin ically
\u0120rem edy
ie re
st en
\u0120manif old
de hy
\u0120p ose
Act ive
AL S
\u0120extract s
\u0120construct or
ah l
ER Y
N ational
\u0120concentr ated
iv ities
20 5
\u0120expect ing
\u0120H um
ym ers
34 5
U ES
\u0120\u00ce\u00bc M
Eval uate
\u0120wal ks
\u0120ne on
\u0120ra pe
\u0120empir ical
\u0120bi ology
ozy g
com put
\u0120gather ing
\u00d1\u0128 \u00d0\u00b8
\u0120jump ed
\u0120trans istor
\u0120chair man
\u0120methyl ation
\u0120rele ases
eles c
D ialog
\u00e8 \u0129
v c
\u0120rest ored
\u0120Build ing
\u0120g aming
W illi
\u0120ent reprene
app er
\u0120Pol and
A ust
\u0120f ier
\u00d1\u0122 \u00d0\u00b0
) ~
\u00e4 \u00be
E mpty
is ible
\u0120catal yst
\u0120B and
\u00e5 \u012b
se par
at omic
IS S
\u0120C ole
\u0120-------- -
\u0120 ure
St ill
le en
br ack
=\"../../ ../../
\u0120t i
\u0120rep orters
\u00e4 \u00bf
\u0120b ass
\u0120exc itation
\u0120dram atically
B ank
\u0120O pp
\u0120Ch annel
n ik
\u0120A K
ob last
\u00d1\u0122 \u00d1\u0125
ex cept
Per haps
\u0120u h
\u0120cal endar
\u0120Mic hel
\u0120c rown
\u0120H ung
b ach
\u0120displ acement
\u0120sh ore
\u0120int im
usal em
\u0120curv ature
\u0120Swed en
\u0120pro x
@ \"
\u00e0\u00b8 \u013b
\u0120show er
n ell
s ample
\u00e5 \u0122
H ash
\u0120appro ximate
\u0120dismiss al
t u
T G
m itt
oc o
\u0120 \u00ea
ful ness
at z
\u0120w ars
\u0120Sing apore
link ed
\u0120Car ter
\u0120pass ive
\u0120S ong
\u0120compan ion
\u0120n aked
\u0120P ed
\u0120Ind ians
is an
\u0120opp onent
\u0120Java Script
xt ures
\u0120Cru z
\u0120int u
\u0120them es
\u00e4\u00bb \u00a5
am l
\u0120fant asy
M icrosoft
________________ ________________
hav ior
\u0120confirm ation
ul pt
to ols
is se
de g
\u0120marg inal
\u0120j unction
\u0120H op
\u0120dist al
\u0120horiz on
\u0120r acing
cont rolled
pl ugin
^ ^
\u0120prev ents
\u0120In cre
2 10
io let
\u0120lad ies
OR S
19 8
\u0120anim ation
\u0120M ort
\u0120after wards
\u0120seem ingly
\u0120D ave
\u0120myst ery
T im
Equ als
\u0120Im port
\u0120------------ --
\u0120th ou
\u0120g em
\u0120Aust in
\u0120transcript s
\u01202 40
\u0120\u00c3 \u00b6
\u0120post ing
\u0120p orn
\u0120Al ice
\u0120fore cast
\u0120dr ift
\u0120S ep
h ai
Not es
\u0120champ ion
S pace
Ad apter
\u0120suscept ible
\u0120cons olid
\u0120cor ruption
\u0120he ated
j amin
\u0120develop ments
or b
\u0120mod er
\u0120appell ate
\u0120medic ations
\u0120insert ion
\u0120Every thing
[ ]{
\u0120C G
- )
oph ys
\u0120proceed s
ay ing
\u0120r ush
\u0120bul let
\u01203 60
\u012019 40
\u0120st ro
o ons
\u0120Char lie
O ption
fe re
\u0120phenomen a
\u0120le ase
Exp ression
\u0120me als
\u0120\u00ce \u00bf
av irus
\u0120hab its
\u0120s ends
\u0120prom ises
\u0120L am
\u0120virt ue
\u0120dist ribute
ack ed
\u0120gast ro
\u0120w rest
or us
ist e
\u0120M M
F ont
ment ation
W riter
in yl
d frac
\u010d \u010d
\u0120N ich
f p
\u0120introdu cing
//////////////// ////////////////
)/( (-
\u01200 5
\u0120constit utes
14 8
\u00c3\u0125 \u00c3\u0124
\u0120elect roph
\u0120band width
que ous
\u0120implement ing
\u0120w ishes
}} )$
as ures
\u00e7 \u00a7
\u0120sh ops
\u0120init iation
m ir
\u0120ast hma
\u0120A RE
D om
\u0120t ale
\u0120insp iration
\u0120den oted
\u0120\u00d0\u00bf \u00d0\u00be
ol utions
\u0120hom ogeneous
\u0120un defined
\u0120T reatment
50 9
add le
13 1
\u0120phosph ate
\u0120consum ed
ing ham
\u0120celebr ate
D ATA
\u00e3\u0125 \u00aa
\u0120k on
\u0120rub ber
ul atory
\u0120W right
\u0120O ak
car bon
W ARE
\u0120recon struct
\u00c3\u0125\u00c3\u0124 \u00c3\u0125\u00c3\u0124
M ask
\u0120in ference
\u0120qu art
by e
' -
\u0120vi ability
VERS ION
\u0120divor ce
\u0120design er
\u0120relax ation
\u00c3\u00a7 \u00c3\u00b5es
}$ )
\u0120f erm
B N
\u0120rank ed
\u0120spont aneous
OR K
0 26
\u0120sk ip
qu ired
\u0120h older
\u0120swe at
\u0120laug hing
\u0120W ind
\u0120collect ing
qu oting
\u0120indust ries
\u0120t amb
\u0120thread s
\u0120c DNA
\u0120Tr ade
est a
\u0120depos ited
\u0120G ard
\u0120D ur
\u0120comp ass
\u0120\u0120\u0120\u0120\u0120\u0120\u0120\u0120\u0120\u0120\u0120\u0120\u0120\u0120\u0120\u0120\u0120\u0120\u0120\u0120\u0120\u0120\u0120\u0120\u0120\u0120\u0120\u0120\u0120\u0120\u0120\u0120 \u0120\u0120\u0120\u0120\u0120\u0120\u0120\u0120\u0120\u0120\u0120\u0120\u0120\u0120
\u0120main stream
\u0120e uro
F actor
m ol
\u00e3\u0124 \u00a2
\u0120ver te
a wn
\u0120form ul
\u0120furn iture
\u0120assert ion
\u0120Col lection
un gen
\u0120tub es
\u0120h orn
\u0120metric s
odynam ic
\u0120streng then
\u0120investig ators
\u0120assert s
\u0120parent al
\u0120pron ounced
m ys
\u00c3 \u00b2
\u010a\u010a \u0120\u0120\u0120\u0120\u0120\u0120\u0120\u0120\u0120
\\| _{
\u0120illust rate
s ent
\u0120pred etermined
\u0120there after
\u0120M ove
}{ {\\
\u0120b er
\u0120Mar ia
fl ag
\u0120progn osis
19 82
Us ers
\u0120In clude
\u0120Ne ither
22 9
)\\ \\
\u0120o ct
\u0120chemical s
\u0120Uk raine
\u0120St aff
\u0120p ens
\u0120dis hes
\u012012 2
\u0120IN TO
\u0120franch ise
w t
\u0120back up
\u0120swim ming
im eter
\u0120f oss
\u0120bit ter
g reat
) }}
B en
\u0120ple asant
\u0120V I
\u0120mar ry
lic enses
k ov
\u0120sound ed
\u0120conve x
\u0120h ind
ion ic
\u0120Sur vey
} )$.
\u0120App endix
\u0120crit ics
c apt
\u00e0\u00b8 \u00b2
\u0120trig gered
\u0120S pect
mar ks
\u0120K r
au er
\u0120def ence
Pr int
qu ant
\u0120terror ist
H y
\u0120Leg isl
\u0120alle le
\u0120dep ict
\u0120c el
\u0120C ulture
av y
\u010d \u010a\u0109\u0109\u0109
in fected
\u0120min eral
15 4
A H
\u0120for b
F UN
\u0120Olymp ics
sp ot
\u0120hand ful
} :
\u0120\" '
\u0120achie ving
ON T
\u0120old est
L V
O s
\u0120Com b
x d
\u0120c rop
\u0120press ing
\u0120Frank lin
| _{
\u012012 9
s ix
p al
17 6
Wh ite
[...]
